{
  "version": "1.0",
  "truncation": null,
  "padding": null,
  "added_tokens": [
    {
      "id": 0,
      "content": "<unk>",
      "single_word": false,
      "lstrip": false,
      "rstrip": false,
      "normalized": false,
      "special": true
    },
    {
      "id": 1,
      "content": "<s>",
      "single_word": false,
      "lstrip": false,
      "rstrip": false,
      "normalized": false,
      "special": true
    },
    {
      "id": 2,
      "content": "</s>",
      "single_word": false,
      "lstrip": false,
      "rstrip": false,
      "normalized": false,
      "special": true
    },
    {
      "id": 3,
      "content": "<|im_start|>",
      "single_word": false,
      "lstrip": false,
      "rstrip": false,
      "normalized": false,
      "special": true
    },
    {
      "id": 4,
      "content": "<|im_end|>",
      "single_word": false,
      "lstrip": false,
      "rstrip": false,
      "normalized": false,
      "special": true
    }
  ],
  "normalizer": {
    "type": "NFKC"
  },
  "pre_tokenizer": {
    "type": "ByteLevel",
    "add_prefix_space": false,
    "trim_offsets": true,
    "use_regex": true
  },
  "post_processor": null,
  "decoder": {
    "type": "ByteLevel",
    "add_prefix_space": true,
    "trim_offsets": true,
    "use_regex": true
  },
  "model": {
    "type": "BPE",
    "dropout": null,
    "unk_token": "<unk>",
    "continuing_subword_prefix": null,
    "end_of_word_suffix": null,
    "fuse_unk": false,
    "byte_fallback": false,
    "ignore_merges": false,
    "vocab": {
      "<unk>": 0,
      "<s>": 1,
      "</s>": 2,
      "<|im_start|>": 3,
      "<|im_end|>": 4,
      "!": 5,
      "\"": 6,
      "#": 7,
      "$": 8,
      "%": 9,
      "&": 10,
      "'": 11,
      "(": 12,
      ")": 13,
      "*": 14,
      "+": 15,
      ",": 16,
      "-": 17,
      ".": 18,
      "/": 19,
      "0": 20,
      "1": 21,
      "2": 22,
      "3": 23,
      "4": 24,
      "5": 25,
      "6": 26,
      "7": 27,
      "8": 28,
      "9": 29,
      ":": 30,
      ";": 31,
      "<": 32,
      "=": 33,
      ">": 34,
      "?": 35,
      "@": 36,
      "A": 37,
      "B": 38,
      "C": 39,
      "D": 40,
      "E": 41,
      "F": 42,
      "G": 43,
      "H": 44,
      "I": 45,
      "J": 46,
      "K": 47,
      "L": 48,
      "M": 49,
      "N": 50,
      "O": 51,
      "P": 52,
      "Q": 53,
      "R": 54,
      "S": 55,
      "T": 56,
      "U": 57,
      "V": 58,
      "W": 59,
      "X": 60,
      "Y": 61,
      "Z": 62,
      "[": 63,
      "\\": 64,
      "]": 65,
      "^": 66,
      "_": 67,
      "`": 68,
      "a": 69,
      "b": 70,
      "c": 71,
      "d": 72,
      "e": 73,
      "f": 74,
      "g": 75,
      "h": 76,
      "i": 77,
      "j": 78,
      "k": 79,
      "l": 80,
      "m": 81,
      "n": 82,
      "o": 83,
      "p": 84,
      "q": 85,
      "r": 86,
      "s": 87,
      "t": 88,
      "u": 89,
      "v": 90,
      "w": 91,
      "x": 92,
      "y": 93,
      "z": 94,
      "{": 95,
      "|": 96,
      "}": 97,
      "~": 98,
      "¡": 99,
      "¢": 100,
      "£": 101,
      "¤": 102,
      "¥": 103,
      "¦": 104,
      "§": 105,
      "¨": 106,
      "©": 107,
      "ª": 108,
      "«": 109,
      "¬": 110,
      "®": 111,
      "¯": 112,
      "°": 113,
      "±": 114,
      "²": 115,
      "³": 116,
      "´": 117,
      "µ": 118,
      "¶": 119,
      "·": 120,
      "¸": 121,
      "¹": 122,
      "º": 123,
      "»": 124,
      "¼": 125,
      "½": 126,
      "¾": 127,
      "¿": 128,
      "À": 129,
      "Á": 130,
      "Â": 131,
      "Ã": 132,
      "Ä": 133,
      "Å": 134,
      "Æ": 135,
      "Ç": 136,
      "È": 137,
      "É": 138,
      "Ê": 139,
      "Ë": 140,
      "Ì": 141,
      "Í": 142,
      "Î": 143,
      "Ï": 144,
      "Ð": 145,
      "Ñ": 146,
      "Ò": 147,
      "Ó": 148,
      "Ô": 149,
      "Õ": 150,
      "Ö": 151,
      "×": 152,
      "Ø": 153,
      "Ù": 154,
      "Ú": 155,
      "Û": 156,
      "Ü": 157,
      "Ý": 158,
      "Þ": 159,
      "ß": 160,
      "à": 161,
      "á": 162,
      "â": 163,
      "ã": 164,
      "ä": 165,
      "å": 166,
      "æ": 167,
      "ç": 168,
      "è": 169,
      "é": 170,
      "ê": 171,
      "ë": 172,
      "ì": 173,
      "í": 174,
      "î": 175,
      "ï": 176,
      "ð": 177,
      "ñ": 178,
      "ò": 179,
      "ó": 180,
      "ô": 181,
      "õ": 182,
      "ö": 183,
      "÷": 184,
      "ø": 185,
      "ù": 186,
      "ú": 187,
      "û": 188,
      "ü": 189,
      "ý": 190,
      "þ": 191,
      "ÿ": 192,
      "Ā": 193,
      "ā": 194,
      "Ă": 195,
      "ă": 196,
      "Ą": 197,
      "ą": 198,
      "Ć": 199,
      "ć": 200,
      "Ĉ": 201,
      "ĉ": 202,
      "Ċ": 203,
      "ċ": 204,
      "Č": 205,
      "č": 206,
      "Ď": 207,
      "ď": 208,
      "Đ": 209,
      "đ": 210,
      "Ē": 211,
      "ē": 212,
      "Ĕ": 213,
      "ĕ": 214,
      "Ė": 215,
      "ė": 216,
      "Ę": 217,
      "ę": 218,
      "Ě": 219,
      "ě": 220,
      "Ĝ": 221,
      "ĝ": 222,
      "Ğ": 223,
      "ğ": 224,
      "Ġ": 225,
      "ġ": 226,
      "Ģ": 227,
      "ģ": 228,
      "Ĥ": 229,
      "ĥ": 230,
      "Ħ": 231,
      "ħ": 232,
      "Ĩ": 233,
      "ĩ": 234,
      "Ī": 235,
      "ī": 236,
      "Ĭ": 237,
      "ĭ": 238,
      "Į": 239,
      "į": 240,
      "İ": 241,
      "ı": 242,
      "Ĳ": 243,
      "ĳ": 244,
      "Ĵ": 245,
      "ĵ": 246,
      "Ķ": 247,
      "ķ": 248,
      "ĸ": 249,
      "Ĺ": 250,
      "ĺ": 251,
      "Ļ": 252,
      "ļ": 253,
      "Ľ": 254,
      "ľ": 255,
      "Ŀ": 256,
      "ŀ": 257,
      "Ł": 258,
      "ł": 259,
      "Ń": 260,
      "ä¸": 261,
      "ãĢ": 262,
      "çļ": 263,
      "çļĦ": 264,
      "äº": 265,
      "ãĢĤ": 266,
      "æľ": 267,
      "åı": 268,
      "åħ": 269,
      "ä»": 270,
      "ãĢģ": 271,
      "å¤": 272,
      "å®": 273,
      "åĪ": 274,
      "ä½": 275,
      "è¿": 276,
      "çĶ": 277,
      "åľ": 278,
      "åĲ": 279,
      "åĬ": 280,
      "æĺ": 281,
      "ç»": 282,
      "åĽ": 283,
      "æĪ": 284,
      "æĸ": 285,
      "ä¹": 286,
      "ä¼": 287,
      "ä¸Ģ": 288,
      "å¹": 289,
      "å°": 290,
      "æĺ¯": 291,
      "åŃ": 292,
      "è®": 293,
      "æĹ": 294,
      "âĢ": 295,
      "åį": 296,
      "å·": 297,
      "è¯": 298,
      "æľī": 299,
      "åľ¨": 300,
      "éĩ": 301,
      "æĿ": 302,
      "äºº": 303,
      "åĮ": 304,
      "ä¸į": 305,
      "å¸": 306,
      "åº": 307,
      "ä¸Ń": 308,
      "å¼": 309,
      "æī": 310,
      "éĢ": 311,
      "åĴ": 312,
      "è¡": 313,
      "åĨ": 314,
      "å¾": 315,
      "å¯": 316,
      "èĢ": 317,
      "åĴĮ": 318,
      "åĩ": 319,
      "äºĨ": 320,
      "æķ": 321,
      "å±": 322,
      "ĥ½": 323,
      "æĢ": 324,
      "å¤§": 325,
      "çĽ": 326,
      "æ°": 327,
      "æĬ": 328,
      "ä¸º": 329,
      "è´": 330,
      "ç§": 331,
      "æł": 332,
      "åĽ½": 333,
      "è§": 334,
      "çĶŁ": 335,
      "çİ": 336,
      "è¦": 337,
      "ä¸ļ": 338,
      "çī": 339,
      "èµ": 340,
      "ä»¥": 341,
      "å¥": 342,
      "æĶ": 343,
      "è¦ģ": 344,
      "å¿": 345,
      "éĻ": 346,
      "åŃ¦": 347,
      "éĿ": 348,
      "åıĳ": 349,
      "èĩ": 350,
      "ä¼ļ": 351,
      "å¹´": 352,
      "åİ": 353,
      "æŃ": 354,
      "çĶ¨": 355,
      "çŃ": 356,
      "æ³": 357,
      "çĲ": 358,
      "å½": 359,
      "ä¿": 360,
      "èĥ½": 361,
      "æ²": 362,
      "çº": 363,
      "éĹ": 364,
      "å·¥": 365,
      "ä½ľ": 366,
      "ä¸Ĭ": 367,
      "åĳ": 368,
      "æİ": 369,
      "æŀ": 370,
      "æĹ¶": 371,
      "æµ": 372,
      "ä¸ª": 373,
      "âĢľ": 374,
      "âĢĿ": 375,
      "æĪĲ": 376,
      "è¡Į": 377,
      "åĵ": 378,
      "è¿Ļ": 379,
      "åı¯": 380,
      "é¢": 381,
      "æĪĳ": 382,
      "åĪ°": 383,
      "æĮ": 384,
      "å¯¹": 385,
      "æ¯": 386,
      "åĩº": 387,
      "éĺ": 388,
      "åŁ": 389,
      "æĥ": 390,
      "è¾": 391,
      "é«": 392,
      "å®¶": 393,
      "äºİ": 394,
      "çĲĨ": 395,
      "çľ": 396,
      "èĤ": 397,
      "åī": 398,
      "é«ĺ": 399,
      "æĿ¥": 400,
      "äº§": 401,
      "æ±": 402,
      "çŃī": 403,
      "åľ°": 404,
      "å¤ļ": 405,
      "æĦ": 406,
      "åĮĸ": 407,
      "æĭ": 408,
      "åħ¨": 409,
      "æĸ¹": 410,
      "åĬĽ": 411,
      "åĪĨ": 412,
      "è¿Ľ": 413,
      "èĩª": 414,
      "è½": 415,
      "éģ": 416,
      "ä½ĵ": 417,
      "æĸ°": 418,
      "å»": 419,
      "ç®": 420,
      "æĢ§": 421,
      "ä¾": 422,
      "åĬ¨": 423,
      "æ´": 424,
      "ç«": 425,
      "å®ŀ": 426,
      "åħ¬": 427,
      "ç»ı": 428,
      "è¿ĩ": 429,
      "æ¸": 430,
      "éĥ": 431,
      "ä¹Ł": 432,
      "çİ°": 433,
      "ä»¬": 434,
      "å¦": 435,
      "ç¨": 436,
      "å±ķ": 437,
      "å°±": 438,
      "åĲĪ": 439,
      "åĲİ": 440,
      "éķ": 441,
      "ä¸»": 442,
      "çĻ": 443,
      "åģ": 444,
      "é£": 445,
      "çĤ": 446,
      "ä¸ĭ": 447,
      "éĿ¢": 448,
      "æı": 449,
      "éĩį": 450,
      "æĽ": 451,
      "æ¬": 452,
      "ç½": 453,
      "å»º": 454,
      "æľº": 455,
      "ä»ĸ": 456,
      "å®ļ": 457,
      "åĵģ": 458,
      "éĥ¨": 459,
      "åĲĮ": 460,
      "å¥½": 461,
      "èī": 462,
      "åĬł": 463,
      "ä¸İ": 464,
      "å¿ĥ": 465,
      "é¡": 466,
      "è®¾": 467,
      "æ³ķ": 468,
      "å¸Ĥ": 469,
      "ä¹ĭ": 470,
      "èģ": 471,
      "æ°´": 472,
      "åº¦": 473,
      "ç¤": 474,
      "èĢĮ": 475,
      "å¼Ģ": 476,
      "çĹ": 477,
      "éĽ": 478,
      "åŃĲ": 479,
      "å¢": 480,
      "æĻ": 481,
      "åħ¶": 482,
      "åĪ¶": 483,
      "æľ¬": 484,
      "åĢ": 485,
      "å¾Ĺ": 486,
      "èĢħ": 487,
      "éĩı": 488,
      "20": 489,
      "è¶": 490,
      "çĸ": 491,
      "è·": 492,
      "ç¬": 493,
      "éķ¿": 494,
      "çŁ": 495,
      "æıĲ": 496,
      "çī©": 497,
      "è°": 498,
      "åĿ": 499,
      "å¦Ĥ": 500,
      "åħ³": 501,
      "åĬ¡": 502,
      "æīĢ": 503,
      "ä¿Ŀ": 504,
      "ç¾": 505,
      "ç®¡": 506,
      "åıĬ": 507,
      "äºĭ": 508,
      "æĹ¥": 509,
      "åºĶ": 510,
      "åīį": 511,
      "éļ": 512,
      "æ¶": 513,
      "éĢļ": 514,
      "æį": 515,
      "åĨħ": 516,
      "çĿ": 517,
      "éĥ½": 518,
      "çĶµ": 519,
      "æķĻ": 520,
      "ç³": 521,
      "å§": 522,
      "çł": 523,
      "åľº": 524,
      "çķ": 525,
      "ç©": 526,
      "èĬ": 527,
      "æĥħ": 528,
      "ç²": 529,
      "ç§į": 530,
      "åĽł": 531,
      "å°ı": 532,
      "æľĪ": 533,
      "çĦ": 534,
      "æĸĩ": 535,
      "æŁ": 536,
      "ç´": 537,
      "åĮº": 538,
      "æ°ĳ": 539,
      "ç¨ĭ": 540,
      "å¤ĸ": 541,
      "èĲ": 542,
      "å¹³": 543,
      "åıĳå±ķ": 544,
      "æľĢ": 545,
      "èµĦ": 546,
      "çĥ": 547,
      "æĬĢ": 548,
      "éľ": 549,
      "ç§ĳ": 550,
      "æĽ´": 551,
      "åĳĺ": 552,
      "éħ": 553,
      "å·¥ä½ľ": 554,
      "éĹ´": 555,
      "çĽ®": 556,
      "ä½į": 557,
      "çĽ¸": 558,
      "æĦı": 559,
      "ä¸ŃåĽ½": 560,
      "å¤©": 561,
      "è´¨": 562,
      "åħ¥": 563,
      "å°Ĩ": 564,
      "æľ¯": 565,
      "å¸¸": 566,
      "å®ī": 567,
      "æľŁ": 568,
      "æ¯Ķ": 569,
      "ç¡": 570,
      "ä»£": 571,
      "ç³»": 572,
      "æĶ¿": 573,
      "çĤ¹": 574,
      "ä½¿": 575,
      "å¼º": 576,
      "ç¬¬": 577,
      "è¡¨": 578,
      "Ĥ£": 579,
      "å¾Ī": 580,
      "ä¸ī": 581,
      "ç±": 582,
      "éĶ": 583,
      "è¯´": 584,
      "æ·": 585,
      "èĥ": 586,
      "å½ĵ": 587,
      "æ´»": 588,
      "åı¸": 589,
      "è¿ĺ": 590,
      "éģĵ": 591,
      "æŀľ": 592,
      "çī¹": 593,
      "ä¼ģ": 594,
      "æ²»": 595,
      "èį": 596,
      "èµ·": 597,
      "éĩĳ": 598,
      "ä»İ": 599,
      "å¹¶": 600,
      "åı¯ä»¥": 601,
      "æģ": 602,
      "æĺİ": 603,
      "åĪ©": 604,
      "ç¥": 605,
      "æ¬¡": 606,
      "èĪ": 607,
      "æŃ¤": 608,
      "çĦ¶": 609,
      "ä¿¡": 610,
      "çĿĢ": 611,
      "åŁº": 612,
      "ãĢĭ": 613,
      "ãĢĬ": 614,
      "åĲĦ": 615,
      "ä½Ĩ": 616,
      "ä¸ĵ": 617,
      "é£İ": 618,
      "æĪĳä»¬": 619,
      "éĴ": 620,
      "æĪĸ": 621,
      "ä¼ģä¸ļ": 622,
      "åħ¬åı¸": 623,
      "åĲį": 624,
      "æĮģ": 625,
      "éĻ¢": 626,
      "è®¡": 627,
      "æľį": 628,
      "åħļ": 629,
      "æķ°": 630,
      "ç¾İ": 631,
      "éĵ": 632,
      "æĹł": 633,
      "äºĽ": 634,
      "ä¸Ģä¸ª": 635,
      "è§Ħ": 636,
      "çģ": 637,
      "çĹħ": 638,
      "å¼ı": 639,
      "èĤ²": 640,
      "èĭ": 641,
      "æŃ£": 642,
      "ä½ł": 643,
      "è§£": 644,
      "é¦": 645,
      "ç»ĵ": 646,
      "å¯¼": 647,
      "ç¼": 648,
      "éĢł": 649,
      "è¢": 650,
      "è£": 651,
      "å£": 652,
      "èº": 653,
      "éľĢ": 654,
      "åķ": 655,
      "ç¤¾": 656,
      "ä»»": 657,
      "æº": 658,
      "èī²": 659,
      "äºĮ": 660,
      "åĸ": 661,
      "ç»Ł": 662,
      "æ¡": 663,
      "åŀ": 664,
      "çĪ": 665,
      "æ°Ķ": 666,
      "é¢ĺ": 667,
      "æ±Ĥ": 668,
      "åįģ": 669,
      "åģļ": 670,
      "åħ·": 671,
      "èĦ": 672,
      "åĪĽ": 673,
      "åĮ»": 674,
      "çłĶ": 675,
      "çľĭ": 676,
      "é¡¹": 677,
      "èº«": 678,
      "00": 679,
      "ç«ĭ": 680,
      "éĩĮ": 681,
      "åħĥ": 682,
      "ç¦": 683,
      "æĦŁ": 684,
      "å¢ŀ": 685,
      "å¤Ħ": 686,
      "æķĪ": 687,
      "æłĩ": 688,
      "æĥ³": 689,
      "æµģ": 690,
      "ç½ĳ": 691,
      "æį®": 692,
      "çĶ±": 693,
      "æİ¥": 694,
      "ç²¾": 695,
      "è¿Ĳ": 696,
      "æł¡": 697,
      "ç»Ħ": 698,
      "éĹ®": 699,
      "æīĭ": 700,
      "éĹ¨": 701,
      "èĮ": 702,
      "åİ»": 703,
      "ä»¶": 704,
      "æł·": 705,
      "ä¹Ī": 706,
      "è½¦": 707,
      "å·±": 708,
      "è¢«": 709,
      "åĲĳ": 710,
      "çĻ½": 711,
      "ä¼ł": 712,
      "éª": 713,
      "æ»": 714,
      "æĢ»": 715,
      "æĸĻ": 716,
      "é¢Ĩ": 717,
      "åİŁ": 718,
      "æĬĢæľ¯": 719,
      "çĲĥ": 720,
      "è¥": 721,
      "çº§": 722,
      "åıĹ": 723,
      "å·²": 724,
      "æ²¡": 725,
      "å¤ĩ": 726,
      "åħ±": 727,
      "è·¯": 728,
      "èĩªå·±": 729,
      "äº¤": 730,
      "åķĨ": 731,
      "è¥¿": 732,
      "å½¢": 733,
      "çİ¯": 734,
      "æł¼": 735,
      "æµ·": 736,
      "å½±": 737,
      "åŀĭ": 738,
      "éĺ²": 739,
      "ç®¡çĲĨ": 740,
      "ä¸¤": 741,
      "çŁ¥": 742,
      "çľģ": 743,
      "æ£": 744,
      "åĽ½å®¶": 745,
      "é»": 746,
      "æľįåĬ¡": 747,
      "é©": 748,
      "åħĪ": 749,
      "åıĺ": 750,
      "è°ĥ": 751,
      "åįķ": 752,
      "å°ĳ": 753,
      "è¿Ľè¡Į": 754,
      "æİ¨": 755,
      "åĻ": 756,
      "ä¼ĺ": 757,
      "ç±»": 758,
      "éĺŁ": 759,
      "éĽĨ": 760,
      "æĶ¹": 761,
      "èģĶ": 762,
      "ä¸ĩ": 763,
      "èİ": 764,
      "ä¹ł": 765,
      "æ¢": 766,
      "æ·±": 767,
      "èĩ³": 768,
      "ä¸ĸ": 769,
      "å¹¿": 770,
      "èĻ": 771,
      "ç¤º": 772,
      "æĶ¶": 773,
      "å¸Ī": 774,
      "é£Ł": 775,
      "éĤ£": 776,
      "è¾ĥ": 777,
      "åıª": 778,
      "æ®": 779,
      "äº§åĵģ": 780,
      "æĮĩ": 781,
      "æīį": 782,
      "ç¤¾ä¼ļ": 783,
      "å»ºè®¾": 784,
      "æŀĦ": 785,
      "æĬ¥": 786,
      "æºĲ": 787,
      "çĸĹ": 788,
      "æĶ¾": 789,
      "æĸ½": 790,
      "å±±": 791,
      "ä¹¦": 792,
      "åįĹ": 793,
      "åıĸ": 794,
      "åŁİ": 795,
      "å®Į": 796,
      "åĻ¨": 797,
      "ä¾Ľ": 798,
      "çĥŃ": 799,
      "è®¤": 800,
      "èµĽ": 801,
      "åı£": 802,
      "éĢī": 803,
      "ä¸ľ": 804,
      "èĬĤ": 805,
      "è¾¾": 806,
      "çº¿": 807,
      "æ³¨": 808,
      "æ¨": 809,
      "è®°": 810,
      "èĢģ": 811,
      "èĲ¥": 812,
      "åĽĽ": 813,
      "èĢĥ": 814,
      "å¸¦": 815,
      "æĪĺ": 816,
      "è¿ĳ": 817,
      "è®©": 818,
      "æ¼": 819,
      "åĮĹ": 820,
      "ç¥ŀ": 821,
      "ä»·": 822,
      "ç¡®": 823,
      "å®¹": 824,
      "è£ħ": 825,
      "çĬ": 826,
      "çķĮ": 827,
      "åĩĨ": 828,
      "éĹ®é¢ĺ": 829,
      "æĿ¡": 830,
      "æķĻèĤ²": 831,
      "å§Ķ": 832,
      "éĿŀ": 833,
      "åħī": 834,
      "åĪ«": 835,
      "æĬ¤": 836,
      "åı°": 837,
      "èħ": 838,
      "è¯ģ": 839,
      "åĽ¢": 840,
      "åĨ³": 841,
      "å²": 842,
      "æ¯ı": 843,
      "ç´ł": 844,
      "çħ": 845,
      "çĽ´": 846,
      "åĬŁ": 847,
      "å¢ĥ": 848,
      "æĢĿ": 849,
      "æµİ": 850,
      "æķ´": 851,
      "äºĶ": 852,
      "æ²¡æľī": 853,
      "æīĵ": 854,
      "å¥³": 855,
      "è±": 856,
      "æĺĵ": 857,
      "æŃ¥": 858,
      "ä½İ": 859,
      "ä¹ī": 860,
      "æĬĬ": 861,
      "åĶ": 862,
      "ç©º": 863,
      "å±Ģ": 864,
      "æĶ¯": 865,
      "æ¸ħ": 866,
      "201": 867,
      "åħ»": 868,
      "åĽŀ": 869,
      "èģĮ": 870,
      "çľŁ": 871,
      "ç©¶": 872,
      "è§Ĥ": 873,
      "åĬŀ": 874,
      "åĭ": 875,
      "ç»Ļ": 876,
      "åĮħ": 877,
      "è§Ĩ": 878,
      "ä½¿çĶ¨": 879,
      "æĿĲ": 880,
      "å®ĥ": 881,
      "æ¶Ī": 882,
      "çĶŁäº§": 883,
      "æĬķ": 884,
      "éĻħ": 885,
      "éľĢè¦ģ": 886,
      "å¼ķ": 887,
      "æĪ·": 888,
      "è´¹": 889,
      "æģ¯": 890,
      "èį¯": 891,
      "Ġ,": 892,
      "å¤´": 893,
      "é¥": 894,
      "ç»ıæµİ": 895,
      "å¤į": 896,
      "æŁ¥": 897,
      "ç§¯": 898,
      "åĬ©": 899,
      "çİĩ": 900,
      "å¿«": 901,
      "æł¹": 902,
      "å¸Ĥåľº": 903,
      "è¨": 904,
      "è¯¥": 905,
      "åıĤ": 906,
      "ç»´": 907,
      "éĢļè¿ĩ": 908,
      "è®®": 909,
      "è¯Ĩ": 910,
      "è´£": 911,
      "éĢŁ": 912,
      "å°±æĺ¯": 913,
      "ä»Ĭ": 914,
      "åĿļ": 915,
      "èĩ´": 916,
      "è§ģ": 917,
      "éĩįè¦ģ": 918,
      "å¿ħ": 919,
      "å¹²": 920,
      "åįĩ": 921,
      "æĢģ": 922,
      "è®º": 923,
      "å¸ĥ": 924,
      "åĨį": 925,
      "å®īåħ¨": 926,
      "æĤ£": 927,
      "çı": 928,
      "çĶŁæ´»": 929,
      "å®¢": 930,
      "åįİ": 931,
      "çłĶç©¶": 932,
      "èı": 933,
      "éªĮ": 934,
      "æŀģ": 935,
      "æĤ": 936,
      "åĨµ": 937,
      "æĸŃ": 938,
      "è½¬": 939,
      "åıį": 940,
      "æĸ¯": 941,
      "ä¸ĵä¸ļ": 942,
      "åİĨ": 943,
      "æİ§": 944,
      "ç»Ń": 945,
      "åĳ½": 946,
      "ä¸»è¦ģ": 947,
      "æħ": 948,
      "è¶Ĭ": 949,
      "åĦ": 950,
      "è¶³": 951,
      "èĬ±": 952,
      "éŁ": 953,
      "å¦Ĥæŀľ": 954,
      "æ¸©": 955,
      "åģ¥": 956,
      "éĻĲ": 957,
      "åĵį": 958,
      "æĹ¶éĹ´": 959,
      "10": 960,
      "å¾·": 961,
      "çĪ±": 962,
      "è¯Ŀ": 963,
      "æ¹": 964,
      "æ£Ģ": 965,
      "å¡": 966,
      "ä½ķ": 967,
      "èĳ": 968,
      "å·ŀ": 969,
      "èĮĥ": 970,
      "æĿĥ": 971,
      "éĢĤ": 972,
      "è¯ķ": 973,
      "ä¸Ķ": 974,
      "æ¸¸": 975,
      "åİĭ": 976,
      "ç¢": 977,
      "çĭ": 978,
      "ä»ĸä»¬": 979,
      "èİ·": 980,
      "åĨĽ": 981,
      "æ¨¡": 982,
      "çļĦäºº": 983,
      "æİĴ": 984,
      "åĨľ": 985,
      "åĢ¼": 986,
      "çª": 987,
      "éĩĩ": 988,
      "éļ¾": 989,
      "é¡¹çĽ®": 990,
      "æĸ¹éĿ¢": 991,
      "åĪĻ": 992,
      "è¶ħ": 993,
      "é¦ĸ": 994,
      "åŁŁ": 995,
      "æ¡Ī": 996,
      "ä»Ģ": 997,
      "å·¥ç¨ĭ": 998,
      "åĬ¿": 999,
      "æľª": 1000,
      "åĳĬ": 1001,
      "åº·": 1002,
      "åı²": 1003,
      "æĸĩåĮĸ": 1004,
      "å§ĭ": 1005,
      "çĬ¶": 1006,
      "äººæ°ĳ": 1007,
      "ç»ĩ": 1008,
      "ç§°": 1009,
      "è¡Ģ": 1010,
      "èŀ": 1011,
      "ä¸¥": 1012,
      "ç³»ç»Ł": 1013,
      "æ²¹": 1014,
      "åħĭ": 1015,
      "åŃĺ": 1016,
      "åĳ¨": 1017,
      "âĢĿ,": 1018,
      "åıĪ": 1019,
      "ä¼Ĺ": 1020,
      "æĺ¾": 1021,
      "åŃ¦çĶŁ": 1022,
      "æ²»çĸĹ": 1023,
      "è¦ģæ±Ĥ": 1024,
      "ä¸ĸçķĮ": 1025,
      "éħį": 1026,
      "åŃĹ": 1027,
      "éĻ¤": 1028,
      "åħ·æľī": 1029,
      "åĪĴ": 1030,
      "æ±Ł": 1031,
      "æµĭ": 1032,
      "é©¬": 1033,
      "åĦ¿": 1034,
      "ä¾¿": 1035,
      "åı¯èĥ½": 1036,
      "æıĲä¾Ľ": 1037,
      "å½±åĵį": 1038,
      "åŁ¹": 1039,
      "çļ®": 1040,
      "æĥħåĨµ": 1041,
      "æĪ¿": 1042,
      "çİ¯å¢ĥ": 1043,
      "åįı": 1044,
      "19": 1045,
      "åĢĻ": 1046,
      "åĪĩ": 1047,
      "è¡Įä¸ļ": 1048,
      "è¿Ļä¸ª": 1049,
      "âĢĶ": 1050,
      "å¥¹": 1051,
      "è´¨éĩı": 1052,
      "èīº": 1053,
      "ä¹Ĳ": 1054,
      "ä»Ģä¹Ī": 1055,
      "åŃ¦ä¹ł": 1056,
      "çĽĳ": 1057,
      "ç»Ĩ": 1058,
      "å¥½çļĦ": 1059,
      "åĲĮæĹ¶": 1060,
      "èĲ½": 1061,
      "éĿĴ": 1062,
      "ç«Ļ": 1063,
      "çħ§": 1064,
      "çĮ": 1065,
      "åľŁ": 1066,
      "ç±³": 1067,
      "æ´»åĬ¨": 1068,
      "çģ«": 1069,
      "çİĭ": 1070,
      "çīĩ": 1071,
      "åĽłä¸º": 1072,
      "äº¬": 1073,
      "çº¦": 1074,
      "å±Ĥ": 1075,
      "æľĽ": 1076,
      "å¼ł": 1077,
      "ãĢĤâĢĿ": 1078,
      "å£«": 1079,
      "é¾": 1080,
      "èĥ½åĬĽ": 1081,
      "æļ": 1082,
      "è®¾å¤ĩ": 1083,
      "è®¾è®¡": 1084,
      "æĳ": 1085,
      "æīĢä»¥": 1086,
      "å¤ª": 1087,
      "å±ŀ": 1088,
      "æ¥": 1089,
      "çŁ³": 1090,
      "æĴ": 1091,
      "äº§ä¸ļ": 1092,
      "é¢Ħ": 1093,
      "éĶĢ": 1094,
      "æī¿": 1095,
      "ç»Ħç»ĩ": 1096,
      "å¤±": 1097,
      "åį³": 1098,
      "åĪĽæĸ°": 1099,
      "è±¡": 1100,
      "çº¢": 1101,
      "èµ°": 1102,
      "å°Ķ": 1103,
      "éĻį": 1104,
      "åĩł": 1105,
      "åĸĦ": 1106,
      "åºľ": 1107,
      "ä»¥åıĬ": 1108,
      "æ®µ": 1109,
      "åħħ": 1110,
      "çĽĬ": 1111,
      "æıĲé«ĺ": 1112,
      "æĺ¯ä¸Ģ": 1113,
      "ç½®": 1114,
      "éļı": 1115,
      "ä¿¡æģ¯": 1116,
      "æ¼Ķ": 1117,
      "ç¦»": 1118,
      "ä¾Ŀ": 1119,
      "æ»¡": 1120,
      "æĤ£èĢħ": 1121,
      "çĻ¾": 1122,
      "æł¸": 1123,
      "èŀį": 1124,
      "å®¤": 1125,
      "åħį": 1126,
      "ä»ħ": 1127,
      "èī¯": 1128,
      "åĪĹ": 1129,
      "åĥ": 1130,
      "ä½ľä¸º": 1131,
      "æĵ": 1132,
      "æĿĳ": 1133,
      "æĿ¿": 1134,
      "å¯Į": 1135,
      "çīĮ": 1136,
      "çļĦä¸Ģ": 1137,
      "å¨": 1138,
      "éĿ©": 1139,
      "åĩı": 1140,
      "ç²¾ç¥ŀ": 1141,
      "æŀĹ": 1142,
      "è´Ł": 1143,
      "åł": 1144,
      "å¾Ģ": 1145,
      "éĤ": 1146,
      "æ¿": 1147,
      "æĻ¯": 1148,
      "éĻ©": 1149,
      "å¤§çļĦ": 1150,
      "åŃ¦æł¡": 1151,
      "è¯Ħ": 1152,
      "ä¾ĭ": 1153,
      "ä¸įåĲĮ": 1154,
      "æĻº": 1155,
      "å¤Ł": 1156,
      "çŃĸ": 1157,
      "äººåĳĺ": 1158,
      "äºī": 1159,
      "ä½ľçĶ¨": 1160,
      "ä¸Ńå¿ĥ": 1161,
      "åŃ©": 1162,
      "ä¸ŃçļĦ": 1163,
      "äº¿": 1164,
      "æĪĲä¸º": 1165,
      "è¿Ļæł·": 1166,
      "è¨Ģ": 1167,
      "äººçļĦ": 1168,
      "éĺ³": 1169,
      "äºļ": 1170,
      "å¿Ĺ": 1171,
      "åĽ´": 1172,
      "å¾Īå¤ļ": 1173,
      "ä¿®": 1174,
      "å¿µ": 1175,
      "åİ¿": 1176,
      "ç¾¤": 1177,
      "åĽ½éĻħ": 1178,
      "è®¸": 1179,
      "æĶ¿åºľ": 1180,
      "æĮī": 1181,
      "åĩºçİ°": 1182,
      "åı·": 1183,
      "æĲ": 1184,
      "åıĭ": 1185,
      "å¾ĭ": 1186,
      "ä½ı": 1187,
      "æĭ©": 1188,
      "ä¹Łæĺ¯": 1189,
      "å¤§åŃ¦": 1190,
      "åĲ«": 1191,
      "åĽŃ": 1192,
      "éĿŀå¸¸": 1193,
      "è¿ŀ": 1194,
      "åĽ¾": 1195,
      "å®ŀçİ°": 1196,
      "åĲĥ": 1197,
      "çĹĩ": 1198,
      "ç»Ī": 1199,
      "å®³": 1200,
      "æĹ©": 1201,
      "ç¬¬ä¸Ģ": 1202,
      "æ²³": 1203,
      "ç®Ĺ": 1204,
      "âĢĿãĢĤ": 1205,
      "èª": 1206,
      "ä»½": 1207,
      "ä¸Ģå®ļ": 1208,
      "è¿ĻäºĽ": 1209,
      "äºĴ": 1210,
      "ä¸ĢäºĽ": 1211,
      "çĽ¸åħ³": 1212,
      "åħ¨åĽ½": 1213,
      "åıĮ": 1214,
      "éĢīæĭ©": 1215,
      "å·²ç»ı": 1216,
      "ç§ĳåŃ¦": 1217,
      "å¯Ĩ": 1218,
      "è¯Ń": 1219,
      "æĭī": 1220,
      "å¯¹äºİ": 1221,
      "åģ¥åº·": 1222,
      "è¿ľ": 1223,
      "æĿĲæĸĻ": 1224,
      "è§Ĵ": 1225,
      "ç§ĳæĬĢ": 1226,
      "åĲĪä½ľ": 1227,
      "æ¿Ģ": 1228,
      "åĿĩ": 1229,
      "èĩªå·±çļĦ": 1230,
      "è§ī": 1231,
      "åħ´": 1232,
      "èĪ¬": 1233,
      "èĤ¡": 1234,
      "æĻ®": 1235,
      "é»Ħ": 1236,
      "è¿ĩç¨ĭ": 1237,
      "è®²": 1238,
      "æŁĵ": 1239,
      "ĠãĢĤ": 1240,
      "åħ¶ä»ĸ": 1241,
      "æĹ¶åĢĻ": 1242,
      "ä¸įæĸŃ": 1243,
      "å¤ĦçĲĨ": 1244,
      "æĹı": 1245,
      "éĴ¢": 1246,
      "åĤ": 1247,
      "æł¹æį®": 1248,
      "è¯·": 1249,
      "åĽłæŃ¤": 1250,
      "çĨ": 1251,
      "éħĴ": 1252,
      "é¡»": 1253,
      "æĬķèµĦ": 1254,
      "ä¸įæĺ¯": 1255,
      "åĶ®": 1256,
      "åı¤": 1257,
      "ä½Ĩæĺ¯": 1258,
      "çĽ®åīį": 1259,
      "å¾®": 1260,
      "è´¢": 1261,
      "çŃĳ": 1262,
      "åĲ¸": 1263,
      "ä»¥ä¸Ĭ": 1264,
      "åŁİå¸Ĥ": 1265,
      "ä¸įèĥ½": 1266,
      "åıĳçĶŁ": 1267,
      "èĭ±": 1268,
      "æķħ": 1269,
      "å©": 1270,
      "éĥ¨éĹ¨": 1271,
      "æłĩåĩĨ": 1272,
      "åĪ°äºĨ": 1273,
      "12": 1274,
      "è½»": 1275,
      "åĪĿ": 1276,
      "èŃ": 1277,
      "ä¸¾": 1278,
      "åŁºç¡": 1279,
      "çľ¼": 1280,
      "åĥı": 1281,
      "åŁºç¡Ģ": 1282,
      "æī¹": 1283,
      "æĸ¹å¼ı": 1284,
      "ç¦ı": 1285,
      "ç¨³": 1286,
      "éŁ³": 1287,
      "åįķä½į": 1288,
      "åŃ©åŃĲ": 1289,
      "è¯¾": 1290,
      "èĨ": 1291,
      "è®Ń": 1292,
      "æ¤": 1293,
      "çĸ«": 1294,
      "éħ¸": 1295,
      "æĿİ": 1296,
      "æŃ¢": 1297,
      "éĥ¨åĪĨ": 1298,
      "å±ħ": 1299,
      "è¾¹": 1300,
      "éĵ¶": 1301,
      "å¤§å®¶": 1302,
      "åºĶçĶ¨": 1303,
      "è¡¨ç¤º": 1304,
      "åī¯": 1305,
      "éĵģ": 1306,
      "ä¸»ä¹ī": 1307,
      "åŃ£": 1308,
      "é¦Ļ": 1309,
      "æĬĹ": 1310,
      "çĵ": 1311,
      "åĮ»éĻ¢": 1312,
      "æľ¨": 1313,
      "çĶ·": 1314,
      "åħ¶ä¸Ń": 1315,
      "200": 1316,
      "çºª": 1317,
      "æĭ¬": 1318,
      "å°½": 1319,
      "åĳ³": 1320,
      "çķ¥": 1321,
      "ä¼¤": 1322,
      "åİĨåı²": 1323,
      "æķ°æį®": 1324,
      "èģļ": 1325,
      "åİĤ": 1326,
      "ä¸ĢèĪ¬": 1327,
      "èĥ½å¤Ł": 1328,
      "åºķ": 1329,
      "éļľ": 1330,
      "çªģ": 1331,
      "åħ«": 1332,
      "çĩ": 1333,
      "éĥ½æĺ¯": 1334,
      "å£°": 1335,
      "çļĦæĺ¯": 1336,
      "å®¡": 1337,
      "ç®Ģ": 1338,
      "æ¬¾": 1339,
      "çıŃ": 1340,
      "åį«": 1341,
      "è¾ĵ": 1342,
      "å¥ĸ": 1343,
      "æĭħ": 1344,
      "çĻľ": 1345,
      "å»ºçŃĳ": 1346,
      "åīĤ": 1347,
      "åħ¨éĿ¢": 1348,
      "æĸ¹æ³ķ": 1349,
      "çĻľé£İ": 1350,
      "å·¥ä¸ļ": 1351,
      "çĻ½çĻľé£İ": 1352,
      "11": 1353,
      "å®Ŀ": 1354,
      "å¼Ģå§ĭ": 1355,
      "ç£": 1356,
      "å¼Ģå±ķ": 1357,
      "çł´": 1358,
      "æ½": 1359,
      "ä»ĭ": 1360,
      "å®ĺ": 1361,
      "é²": 1362,
      "æľīéĻĲ": 1363,
      "åįĬ": 1364,
      "è¿Ļç§į": 1365,
      ":âĢľ": 1366,
      "ä¿ĥ": 1367,
      "å®£": 1368,
      "åĮħæĭ¬": 1369,
      "æ±½": 1370,
      "åĿļæĮģ": 1371,
      "æ¶²": 1372,
      "åĬŁèĥ½": 1373,
      "èµĦæºĲ": 1374,
      "ĠãĢģ": 1375,
      "è¡¥": 1376,
      "åĸľ": 1377,
      "äº²": 1378,
      "æĪĸèĢħ": 1379,
      "å¸Į": 1380,
      "æ¯Ĵ": 1381,
      "æ±¡": 1382,
      "é¾Ļ": 1383,
      "éĽĨåĽ¢": 1384,
      "å¿ħé¡»": 1385,
      "èİ·å¾Ĺ": 1386,
      "è§Ħå®ļ": 1387,
      "ç§¯æŀģ": 1388,
      "æĺ¥": 1389,
      "ç¼º": 1390,
      "åľ°åĮº": 1391,
      "æĺŁ": 1392,
      "éĨ": 1393,
      "é¢Ĩå¯¼": 1394,
      "åĨ·": 1395,
      "çĶ±äºİ": 1396,
      "ä¿ĿæĬ¤": 1397,
      "æĽ¾": 1398,
      "åį°": 1399,
      "æ°´å¹³": 1400,
      "æĪĳåĽ½": 1401,
      "èĹ": 1402,
      "åį´": 1403,
      "ä»£è¡¨": 1404,
      "ç½Ĺ": 1405,
      "æľºæŀĦ": 1406,
      "åħŃ": 1407,
      "åįļ": 1408,
      "ç¿": 1409,
      "æĹħ": 1410,
      "èĴ": 1411,
      "æī§": 1412,
      "ä¸´": 1413,
      "é¢ĨåŁŁ": 1414,
      "ç»ĵæŀĦ": 1415,
      "çİ°åľ¨": 1416,
      "åĬłå¼º": 1417,
      "åĮĹäº¬": 1418,
      "çķĻ": 1419,
      "æ³¨æĦı": 1420,
      "çĶ»": 1421,
      "ç¾İåĽ½": 1422,
      "ç»§": 1423,
      "æŀĲ": 1424,
      "æıĲåįĩ": 1425,
      "ä¸ĢæŃ¥": 1426,
      "çĭ¬": 1427,
      "ä½Ļ": 1428,
      "ç¯": 1429,
      "æ¯Ķè¾ĥ": 1430,
      "åī§": 1431,
      "30": 1432,
      "éĢģ": 1433,
      "å¢ŀéķ¿": 1434,
      "å·®": 1435,
      "å¸®": 1436,
      "202": 1437,
      "åı¦": 1438,
      "çĸ¾": 1439,
      "å·´": 1440,
      "ç´§": 1441,
      "æĹ¶ä»£": 1442,
      "åĽº": 1443,
      "å¤®": 1444,
      "éº": 1445,
      "15": 1446,
      "å¾ģ": 1447,
      "æİ§åĪ¶": 1448,
      "äºĨè§£": 1449,
      "ç¨İ": 1450,
      "é»ĳ": 1451,
      "è´£ä»»": 1452,
      "èĳĹ": 1453,
      "è´Ń": 1454,
      "å¢ŀåĬł": 1455,
      "åĬ³": 1456,
      "åįł": 1457,
      "ç»¼": 1458,
      "æįŁ": 1459,
      "äºĳ": 1460,
      "ä¸°": 1461,
      "ä¹¡": 1462,
      "åŁºæľ¬": 1463,
      "å¹³åı°": 1464,
      "æŃ¦": 1465,
      "ä¸ªäºº": 1466,
      "ç¬¬äºĮ": 1467,
      "åįĥ": 1468,
      "å½¢æĪĲ": 1469,
      "æĢĿæĥ³": 1470,
      "åĪ»": 1471,
      "ç»¿": 1472,
      "å¾ħ": 1473,
      "çĤº": 1474,
      "å®¢æĪ·": 1475,
      "ç»ľ": 1476,
      "æ¹ĸ": 1477,
      "çĤİ": 1478,
      "çİ°ä»£": 1479,
      "é¸": 1480,
      "å®ĮæĪĲ": 1481,
      "æķĻåŃ¦": 1482,
      "åĵģçīĮ": 1483,
      "è¿ĺæĺ¯": 1484,
      "æĶ¹éĿ©": 1485,
      "å¹´çļĦ": 1486,
      "äººæīį": 1487,
      "å¼Ĥ": 1488,
      "æĶ¿æ²»": 1489,
      "åħ³ç³»": 1490,
      "æ¬¢": 1491,
      "æ¦": 1492,
      "çº³": 1493,
      "åŃ¦éĻ¢": 1494,
      "é¥®": 1495,
      "åĨħå®¹": 1496,
      "ä¸įä¼ļ": 1497,
      "æľīæķĪ": 1498,
      "çŁŃ": 1499,
      "æĶ¿çŃĸ": 1500,
      "è§£åĨ³": 1501,
      "èĢĮä¸Ķ": 1502,
      "å¯¼èĩ´": 1503,
      "é¼": 1504,
      "æŁĲ": 1505,
      "åı¥": 1506,
      "åıĳçİ°": 1507,
      "ç«ŀ": 1508,
      "æľīéĻĲåħ¬åı¸": 1509,
      "å¯Ł": 1510,
      "åĽ½åĨħ": 1511,
      "çĶ³": 1512,
      "éķĩ": 1513,
      "åĪĨæŀĲ": 1514,
      "æ¸¯": 1515,
      "éĤ£ä¹Ī": 1516,
      "éľĢæ±Ĥ": 1517,
      "èĢĲ": 1518,
      "åĩ»": 1519,
      "æ¯į": 1520,
      "æĸ°çļĦ": 1521,
      "è®¤ä¸º": 1522,
      "åĪ¶éĢł": 1523,
      "äº§çĶŁ": 1524,
      "ä¸ĬçļĦ": 1525,
      "æī¾": 1526,
      "åºĹ": 1527,
      "èĥľ": 1528,
      "éģ¿": 1529,
      "æłĳ": 1530,
      "é¢Ŀ": 1531,
      "æİ¨è¿Ľ": 1532,
      "åĲĦç§į": 1533,
      "åį¡": 1534,
      "æĮ¥": 1535,
      "æŃ»": 1536,
      "èĮ¶": 1537,
      "ä½ĵç³»": 1538,
      "åĪ©çĶ¨": 1539,
      "åĲ¦": 1540,
      "ç»ıèĲ¥": 1541,
      "æĽ´åĬł": 1542,
      "å¸ĮæľĽ": 1543,
      "èĻ½": 1544,
      "ä¸ºäºĨ": 1545,
      "æľīåħ³": 1546,
      "æ¢¦": 1547,
      "çĹĽ": 1548,
      "åĨł": 1549,
      "éĩįçĤ¹": 1550,
      "),": 1551,
      "åĨĻ": 1552,
      "ç»¼åĲĪ": 1553,
      "ç§»": 1554,
      "åĪ¶åº¦": 1555,
      "è¿Ļä¸Ģ": 1556,
      "å²ģ": 1557,
      "æ³¢": 1558,
      "ä¼ļè®®": 1559,
      "è´§": 1560,
      "éĢłæĪĲ": 1561,
      "èĩªçĦ¶": 1562,
      "åħļçļĦ": 1563,
      "æİ¨åĬ¨": 1564,
      "çĽ®æłĩ": 1565,
      "å°Ħ": 1566,
      "å®ŀæĸ½": 1567,
      ",âĢľ": 1568,
      "ä¸Ńå¤®": 1569,
      "æĿ¥çļĦ": 1570,
      "ä»¤": 1571,
      "ä¹¦è®°": 1572,
      "çĶ¨äºİ": 1573,
      "æ±ī": 1574,
      "æľĥ": 1575,
      "å®¹æĺĵ": 1576,
      "åħ°": 1577,
      "ç»Ŀ": 1578,
      "ç¼ĸ": 1579,
      "èĪª": 1580,
      "æį¢": 1581,
      "åŃĺåľ¨": 1582,
      "æĸĹ": 1583,
      "éĺ¿": 1584,
      "åº§": 1585,
      "åį±": 1586,
      "æĶ¯æĮģ": 1587,
      "å½ķ": 1588,
      "ç½ĳç»ľ": 1589,
      "å¼Ģåıĳ": 1590,
      "çŁ¥è¯Ĩ": 1591,
      "çī¹èī²": 1592,
      "éĩĩçĶ¨": 1593,
      "éĴŁ": 1594,
      "ç«¯": 1595,
      "ä¹ĭåĲİ": 1596,
      "ç§Ģ": 1597,
      "æ¬§": 1598,
      "æĦ¿": 1599,
      "æĭ¥": 1600,
      "ä¼łç»Ł": 1601,
      "æ°§": 1602,
      "ç«ł": 1603,
      "çļĦæĹ¶åĢĻ": 1604,
      "éģĩ": 1605,
      "æ±½è½¦": 1606,
      "çīĽ": 1607,
      "èĭı": 1608,
      "çŁ¥éģĵ": 1609,
      "æīĢæľī": 1610,
      "çĸ¾çĹħ": 1611,
      "æ¤į": 1612,
      "åĲ¬": 1613,
      "äºĨä¸Ģ": 1614,
      "ä¹Ŀ": 1615,
      "æķĪæŀľ": 1616,
      "çĮ®": 1617,
      "ä¸įä»ħ": 1618,
      "èıľ": 1619,
      "å¦Ĥä½ķ": 1620,
      "çī¹åĪ«": 1621,
      "è¯»": 1622,
      "æĿ¡ä»¶": 1623,
      "æĴŃ": 1624,
      "å®Ī": 1625,
      "ä¸ļåĬ¡": 1626,
      "ä¿ĿæĮģ": 1627,
      "åĵª": 1628,
      "åºĶè¯¥": 1629,
      "åĬª": 1630,
      "æ¶Īè´¹": 1631,
      "å»ºç«ĭ": 1632,
      "èĽ": 1633,
      "æĤ¨": 1634,
      "éĸ": 1635,
      "çīĪ": 1636,
      "æ´Ĺ": 1637,
      "åºŃ": 1638,
      "Â·": 1639,
      "è´Łè´£": 1640,
      "åľ°æĸ¹": 1641,
      "ç»ĵåĲĪ": 1642,
      "æĩ": 1643,
      "å±Ĭ": 1644,
      "éĢĲ": 1645,
      "è¿Ľä¸ĢæŃ¥": 1646,
      "é¢ĳ": 1647,
      "è¾¾åĪ°": 1648,
      "èįī": 1649,
      "èŃ¦": 1650,
      "å®ŀéĻħ": 1651,
      "æĢ¥": 1652,
      "çĶļ": 1653,
      "èĤī": 1654,
      "æĢİ": 1655,
      "èģĮä¸ļ": 1656,
      "æĪı": 1657,
      "ç²ī": 1658,
      "åĽ°": 1659,
      "100": 1660,
      "å³": 1661,
      "âĢĶâĢĶ": 1662,
      "æĵį": 1663,
      "æĭĽ": 1664,
      "çĿ£": 1665,
      "èº«ä½ĵ": 1666,
      "åºı": 1667,
      "ä»į": 1668,
      "åĬªåĬĽ": 1669,
      "æĿ¥è¯´": 1670,
      "å¤«": 1671,
      "è¿°": 1672,
      "ä»·æł¼": 1673,
      "ãĢĮ": 1674,
      "åºĬ": 1675,
      "è·µ": 1676,
      "å·¦": 1677,
      "èīºæľ¯": 1678,
      "è¿ĺæľī": 1679,
      "æıĲåĩº": 1680,
      "è¿Ļæĺ¯": 1681,
      "åıĸå¾Ĺ": 1682,
      "ä¹ħ": 1683,
      "ä»ª": 1684,
      "å½©": 1685,
      "è½®": 1686,
      "æİĪ": 1687,
      "äº¿åħĥ": 1688,
      "ãĢį": 1689,
      "ä¸ĥ": 1690,
      "ä¸įè¦ģ": 1691,
      "ä¸Ģèµ·": 1692,
      "è²": 1693,
      "åŁ¹åħ»": 1694,
      "æĮģç»Ń": 1695,
      "æĻĤ": 1696,
      "æĪĺçķ¥": 1697,
      "æİª": 1698,
      "åĩĢ": 1699,
      "æ´²": 1700,
      "åĳ¢": 1701,
      "ä»·åĢ¼": 1702,
      "50": 1703,
      "åı³": 1704,
      "åª": 1705,
      "ç»į": 1706,
      "æ£ĢæŁ¥": 1707,
      "ä¿ĥè¿Ľ": 1708,
      "è¿½": 1709,
      "éĺ¶": 1710,
      "ä¼ĺåĬ¿": 1711,
      "åħ¨çĲĥ": 1712,
      "åİŁåĽł": 1713,
      "çµ": 1714,
      "%,": 1715,
      "æ¢°": 1716,
      "ä¹ĭä¸Ģ": 1717,
      "éĿł": 1718,
      "éĴĪ": 1719,
      "é½": 1720,
      "é£Łåĵģ": 1721,
      "åģľ": 1722,
      "ä¹°": 1723,
      "æĶ»": 1724,
      "é¡º": 1725,
      "é£ŀ": 1726,
      "éĶĢåĶ®": 1727,
      "ä¸Ĭæµ·": 1728,
      "é¦Ĩ": 1729,
      "è½¯": 1730,
      "çĶ²": 1731,
      "çĽ´æİ¥": 1732,
      "èĸ": 1733,
      "è¿ĲåĬ¨": 1734,
      "é¤": 1735,
      "ä¿Ŀéļľ": 1736,
      "ç»©": 1737,
      "è®¡åĪĴ": 1738,
      "ç¨³å®ļ": 1739,
      "å¸®åĬ©": 1740,
      "éĻĪ": 1741,
      "å¥ĭ": 1742,
      "èĻ½çĦ¶": 1743,
      "æ¯ĶèµĽ": 1744,
      "éĢĻ": 1745,
      "çĻ»": 1746,
      "è¯Ĭ": 1747,
      "äºĭä¸ļ": 1748,
      "åıĤåĬł": 1749,
      "äºĪ": 1750,
      "è´µ": 1751,
      "ç´¢": 1752,
      "èĤ¤": 1753,
      "å§Ķåĳĺ": 1754,
      "18": 1755,
      "æĻºèĥ½": 1756,
      "æĽ´å¤ļ": 1757,
      "è¿Ľåħ¥": 1758,
      "æķ£": 1759,
      "æĪĲåĬŁ": 1760,
      "åıªæľī": 1761,
      "å¡ĳ": 1762,
      "å¸Ń": 1763,
      "å®ģ": 1764,
      "éĴ±": 1765,
      "è·Ł": 1766,
      "åħ¸": 1767,
      "æķĻå¸Ī": 1768,
      "äººä»¬": 1769,
      "ç»ĥ": 1770,
      "ä¼¼": 1771,
      "å°¼": 1772,
      "æĭ¥æľī": 1773,
      "åĨ²": 1774,
      "åħ±åĲĮ": 1775,
      "ç¶": 1776,
      "éĶ®": 1777,
      "æ°ĳæĹı": 1778,
      "èĦĳ": 1779,
      "è½½": 1780,
      "æ©": 1781,
      "çĶŁæĢģ": 1782,
      "è¡Įä¸º": 1783,
      "éĢĢ": 1784,
      "éŃ": 1785,
      "éļıçĿĢ": 1786,
      "éĢı": 1787,
      "èĲ½å®ŀ": 1788,
      "èıĮ": 1789,
      "ä¹ĭéĹ´": 1790,
      "èį£": 1791,
      "æħ¢": 1792,
      "èĵ": 1793,
      "å¥ĩ": 1794,
      "èĦ±": 1795,
      "åħħåĪĨ": 1796,
      "åıĬæĹ¶": 1797,
      "èĭ¦": 1798,
      "è¯ī": 1799,
      "çĪ¶": 1800,
      "è¿ĩç¨ĭä¸Ń": 1801,
      "åĪĺ": 1802,
      "çĶļèĩ³": 1803,
      "çĶ¨æĪ·": 1804,
      "æĻļ": 1805,
      "æī©": 1806,
      "åĮ»çĸĹ": 1807,
      "è§ĦåĪĴ": 1808,
      "æ³Ľ": 1809,
      "å®«": 1810,
      "ä»ĭç»į": 1811,
      "æĮīçħ§": 1812,
      "å¥Ĺ": 1813,
      "åģĩ": 1814,
      "èĨľ": 1815,
      "ä¸¥éĩį": 1816,
      "çĶµåŃĲ": 1817,
      "éĩĳèŀį": 1818,
      "åŃķ": 1819,
      "åŁ¹è®Ń": 1820,
      "çļĦåıĳå±ķ": 1821,
      "æİ¢": 1822,
      "äº¤éĢļ": 1823,
      "åıĳå±ķçļĦ": 1824,
      "åĬłå·¥": 1825,
      "åĺ": 1826,
      "æĿ¾": 1827,
      "æľĿ": 1828,
      "æīĺ": 1829,
      "ä»ĺ": 1830,
      "åı¶": 1831,
      "è´¯": 1832,
      "æ¯ķ": 1833,
      "æ°¸": 1834,
      "å»¶": 1835,
      "æĢ§èĥ½": 1836,
      "ç¬¬ä¸ī": 1837,
      "éĶĻ": 1838,
      "åĢĭ": 1839,
      "ä¼Ł": 1840,
      "æł¸å¿ĥ": 1841,
      "å½»": 1842,
      "åºĨ": 1843,
      "è³": 1844,
      "æĢ§çļĦ": 1845,
      "ç»§ç»Ń": 1846,
      "æĬĵ": 1847,
      "æīįèĥ½": 1848,
      "å¨ģ": 1849,
      "åıĳæĮ¥": 1850,
      "å¥¥": 1851,
      "ä»»ä½ķ": 1852,
      "çĴ": 1853,
      "ä»Ĭå¹´": 1854,
      "åħ³äºİ": 1855,
      "16": 1856,
      "èĥ¶": 1857,
      "ç¥¨": 1858,
      "èĥĮ": 1859,
      "æĹħæ¸¸": 1860,
      "æ³ķå¾ĭ": 1861,
      "äº«": 1862,
      "éĽ¨": 1863,
      "ä¸¤ä¸ª": 1864,
      "æĬ¥åĳĬ": 1865,
      "åĩıå°ĳ": 1866,
      "è¶ħè¿ĩ": 1867,
      "ä¹İ": 1868,
      "ä¸ĢçĽ´": 1869,
      "çĽĸ": 1870,
      "çģµ": 1871,
      "å®ĮåĸĦ": 1872,
      "å¾ĹåĪ°": 1873,
      "é²ľ": 1874,
      "ç½ª": 1875,
      "åİļ": 1876,
      "ç¦ģ": 1877,
      "æ¾": 1878,
      "ä¸°å¯Į": 1879,
      "èĥ½æºĲ": 1880,
      "è°Ī": 1881,
      "å®ŀè·µ": 1882,
      "ä»ĸçļĦ": 1883,
      "æķĳ": 1884,
      "æĸ¹æ¡Ī": 1885,
      "ç¤¾ä¼ļä¸»ä¹ī": 1886,
      "æľĭ": 1887,
      "éģ¿åħį": 1888,
      "çĨŁ": 1889,
      "è¿İ": 1890,
      "è¯ļ": 1891,
      "æ²Ļ": 1892,
      "å©ļ": 1893,
      "èĮĥåĽ´": 1894,
      "åĪ¤": 1895,
      "å¼ķèµ·": 1896,
      "æĿĤ": 1897,
      "çĺ": 1898,
      "æĢĢ": 1899,
      "ä½³": 1900,
      "ä¸ĵå®¶": 1901,
      "èĹı": 1902,
      "åĪĨéĴŁ": 1903,
      "æĮĩå¯¼": 1904,
      "ç»ıè¿ĩ": 1905,
      "èĭ¥": 1906,
      "æŃĮ": 1907,
      "14": 1908,
      "éĩįå¤§": 1909,
      "æľªæĿ¥": 1910,
      "åªĴ": 1911,
      "ç³»åĪĹ": 1912,
      "èĻĳ": 1913,
      "éĻĦ": 1914,
      "çĲĨè®º": 1915,
      "å®Ĺ": 1916,
      "æĪĲæľ¬": 1917,
      "çļĦå¤§": 1918,
      "äº®": 1919,
      "æĸ½å·¥": 1920,
      "æ¨¡å¼ı": 1921,
      "åħ³éĶ®": 1922,
      "è§Ħæ¨¡": 1923,
      "ä½Ľ": 1924,
      "ä¾Ĩ": 1925,
      "èħĲ": 1926,
      "å°¤": 1927,
      "éł": 1928,
      "æľºæ¢°": 1929,
      "ä¸įåı¯": 1930,
      "æ¯Ľ": 1931,
      "13": 1932,
      "åºŁ": 1933,
      "å°ģ": 1934,
      "åģļå¥½": 1935,
      "çĶŁçī©": 1936,
      "ä¸Ńåįİ": 1937,
      "éª¨": 1938,
      "èģĶç½ĳ": 1939,
      "åıĹåĪ°": 1940,
      "åıĤä¸İ": 1941,
      "ä¿Ŀè¯ģ": 1942,
      "%ãĢĤ": 1943,
      "åıĺåĮĸ": 1944,
      "ä¸Ģæ¬¡": 1945,
      "åĲ¯": 1946,
      "åĬĽéĩı": 1947,
      "åĿĹ": 1948,
      "æĹ¢": 1949,
      "éķ¿æľŁ": 1950,
      "åºĵ": 1951,
      "é£İéĻ©": 1952,
      "ä»¥ä¸ĭ": 1953,
      "è¡¨çİ°": 1954,
      "ä½ĵèĤ²": 1955,
      "å¹´æĿ¥": 1956,
      "ç»ıéªĮ": 1957,
      "ä¸ĩåħĥ": 1958,
      "è¡ĮæĶ¿": 1959,
      "å®¶åºŃ": 1960,
      "è®¸å¤ļ": 1961,
      "æĪĲç«ĭ": 1962,
      "æĿ¯": 1963,
      "åĽłç´ł": 1964,
      "å¤ı": 1965,
      "æľĭåıĭ": 1966,
      "çļ®èĤ¤": 1967,
      "é±": 1968,
      "ä»¥æĿ¥": 1969,
      "ç¾¤ä¼Ĺ": 1970,
      "çļĦéĩįè¦ģ": 1971,
      "æľĢåĲİ": 1972,
      "çĥĪ": 1973,
      "éģĹ": 1974,
      "çŃĶ": 1975,
      "æı¡": 1976,
      "åĪļ": 1977,
      "ä»»åĬ¡": 1978,
      "èµ·æĿ¥": 1979,
      "ç¡¬": 1980,
      "äº¤æµģ": 1981,
      "çĳ": 1982,
      "ç³ĸ": 1983,
      "è¿Ŀ": 1984,
      "ä¸Ģç§į": 1985,
      "åºĶå½ĵ": 1986,
      "æĭ¿": 1987,
      "æ¥¼": 1988,
      "æĽ²": 1989,
      "èĥŀ": 1990,
      "éĽ¶": 1991,
      "å¦ĩ": 1992,
      "çłĶåıĳ": 1993,
      "æİªæĸ½": 1994,
      "é±¼": 1995,
      "éĿĻ": 1996,
      "è¿ĳå¹³": 1997,
      "ç«¥": 1998,
      "æĪĳçļĦ": 1999,
      "æ£Ģæµĭ": 2000,
      "æľīçļĦ": 2001,
      "éĹ»": 2002,
      "å®ľ": 2003,
      "æ¶ī": 2004,
      "æ¶¦": 2005,
      "ä¹łè¿ĳå¹³": 2006,
      "å¹²éĥ¨": 2007,
      "å·Ŀ": 2008,
      "çĬ¯": 2009,
      "ç¹": 2010,
      "ä¸½": 2011,
      "ç©ºéĹ´": 2012,
      "éĻįä½İ": 2013,
      "éĵ¾": 2014,
      "åĨ³å®ļ": 2015,
      "çĸĳ": 2016,
      "è´¸": 2017,
      "æĺ¯ä¸Ģç§į": 2018,
      "æ´ģ": 2019,
      "ç«ŀäºī": 2020,
      "çĥŁ": 2021,
      "èĶ": 2022,
      "ä¸Ģæł·": 2023,
      "åħ·ä½ĵ": 2024,
      "ç¬¦": 2025,
      "æŀ¶": 2026,
      "èĦĤ": 2027,
      "çī¹çĤ¹": 2028,
      "å¹¿æ³Ľ": 2029,
      "ä¸Ŀ": 2030,
      "é¡¾": 2031,
      "æ¶Ĥ": 2032,
      "åħĪè¿Ľ": 2033,
      "å¹¸": 2034,
      "åĢŁ": 2035,
      "åĨĮ": 2036,
      "å®£ä¼ł": 2037,
      "æ¹¿": 2038,
      "åĬ±": 2039,
      "åį«çĶŁ": 2040,
      "æŃ£å¸¸": 2041,
      "æĢİä¹Ī": 2042,
      "æĺ¯åľ¨": 2043,
      ")ãĢģ": 2044,
      "éĺ¶æ®µ": 2045,
      "æ·±åħ¥": 2046,
      "æĵįä½ľ": 2047,
      "å¢ŀå¼º": 2048,
      "å·¨": 2049,
      "çĸ«æĥħ": 2050,
      "èĩªåĬ¨": 2051,
      "éĵ¶è¡Į": 2052,
      "çŁ¿": 2053,
      ")ãĢĤ": 2054,
      "åĬ³åĬ¨": 2055,
      "âĢĿãĢģ": 2056,
      "ä¼ĺç§Ģ": 2057,
      "è´«": 2058,
      "æľŁéĹ´": 2059,
      "æ±¡æŁĵ": 2060,
      "åĪº": 2061,
      "æĺ¾ç¤º": 2062,
      "æ´¾": 2063,
      "æ··": 2064,
      "éĿ¢ç§¯": 2065,
      "çĩĥ": 2066,
      "æĦıè¯Ĩ": 2067,
      "æ¸Ĳ": 2068,
      "è°¢": 2069,
      "çİ©": 2070,
      "çŃ¾": 2071,
      "æİ¥åıĹ": 2072,
      "ç´¯": 2073,
      "çī©è´¨": 2074,
      "ç»ĵæŀľ": 2075,
      "åĨľä¸ļ": 2076,
      "çĹĩçĬ¶": 2077,
      "éĺ´": 2078,
      "ä¼ĳ": 2079,
      "å»ºè®®": 2080,
      "ä½łçļĦ": 2081,
      "ãĢĭ,": 2082,
      "èĽĭ": 2083,
      "éļĶ": 2084,
      "é¤Ĳ": 2085,
      "çļĦé«ĺ": 2086,
      "æĸ¹åĲĳ": 2087,
      "å¤ľ": 2088,
      "æ±ł": 2089,
      "ç¢³": 2090,
      "é¥°": 2091,
      "åıĳå¸ĥ": 2092,
      "ä»İèĢĮ": 2093,
      "å°±ä¼ļ": 2094,
      "çĶ³è¯·": 2095,
      "ç»´æĬ¤": 2096,
      "æĹłæ³ķ": 2097,
      "å®ŀéªĮ": 2098,
      "ç¤¼": 2099,
      "æĦıä¹ī": 2100,
      "è®¾æĸ½": 2101,
      "å¿ĥçĲĨ": 2102,
      "çļĦäºĭ": 2103,
      "åĳĺå·¥": 2104,
      "ä¸įè¿ĩ": 2105,
      "è´¥": 2106,
      "å·¥èīº": 2107,
      "æ¡¥": 2108,
      "çº¸": 2109,
      "æĮĩåĩº": 2110,
      "000": 2111,
      "17": 2112,
      "åĩĿ": 2113,
      "çĲĨå¿µ": 2114,
      "é£Łçī©": 2115,
      "åĲī": 2116,
      "çĽŁ": 2117,
      "æī¬": 2118,
      "é¹": 2119,
      "åĤ¨": 2120,
      "25": 2121,
      "åİĭåĬĽ": 2122,
      "æĺ¯åĲ¦": 2123,
      "è®°èĢħ": 2124,
      "åĽ¢éĺŁ": 2125,
      "æĺİç¡®": 2126,
      "æĪĳä»¬çļĦ": 2127,
      "ä¹Łæľī": 2128,
      "èĪŀ": 2129,
      "èļ": 2130,
      "å½¢å¼ı": 2131,
      "åĮºåŁŁ": 2132,
      "åİħ": 2133,
      "èµĦéĩĳ": 2134,
      "éľ²": 2135,
      "åłĤ": 2136,
      "å¹¶ä¸Ķ": 2137,
      "çĶµå½±": 2138,
      "çĽĽ": 2139,
      "æĶ¶åħ¥": 2140,
      "åħļåĳĺ": 2141,
      "å¿«éĢŁ": 2142,
      "è®¿": 2143,
      "ç©¿": 2144,
      "å¼±": 2145,
      "çļĩ": 2146,
      "çĶ°": 2147,
      "æĪĲæŀľ": 2148,
      "çİī": 2149,
      "çİ°åľº": 2150,
      "è©": 2151,
      "æİĮ": 2152,
      "ç£¨": 2153,
      "40": 2154,
      "é«ĺçļĦ": 2155,
      "åĲĹ": 2156,
      "æĿĢ": 2157,
      "ä¼´": 2158,
      "è§¦": 2159,
      "è§ĦèĮĥ": 2160,
      "å¸Ŀ": 2161,
      "èĤ¥": 2162,
      "è·Ŀ": 2163,
      "æ»ĳ": 2164,
      "è¸": 2165,
      "ç®±": 2166,
      "å¤§éĩı": 2167,
      "å°į": 2168,
      "åĢĳ": 2169,
      "çľĭåĪ°": 2170,
      "åľĭ": 2171,
      "æĺİæĺ¾": 2172,
      "å´": 2173,
      "å®Įåħ¨": 2174,
      "èľ": 2175,
      "æī§è¡Į": 2176,
      "è¯Ĺ": 2177,
      "çĽĺ": 2178,
      "ç®Ģåįķ": 2179,
      "åĪĽéĢł": 2180,
      "çĶŁåĳ½": 2181,
      "å¼ĢæĶ¾": 2182,
      "ç½ĳç«Ļ": 2183,
      "è¡£": 2184,
      "ç¡®ä¿Ŀ": 2185,
      "å²Ĺ": 2186,
      "å°ļ": 2187,
      "çĽĳçĿ£": 2188,
      "åĨ¬": 2189,
      "ãĢĤâĢľ": 2190,
      "éĩĬ": 2191,
      "è®¡ç®Ĺ": 2192,
      "éĺ»": 2193,
      "æ¸¸æĪı": 2194,
      "ä½ľåĵģ": 2195,
      "æľºåĪ¶": 2196,
      "ç¨ĭåº¦": 2197,
      "èģĶåĲĪ": 2198,
      "æ¸©åº¦": 2199,
      "é½Ĳ": 2200,
      "éģİ": 2201,
      "åĲĪçĲĨ": 2202,
      "åħ¶å®ŀ": 2203,
      "èĦļ": 2204,
      "çļĦå·¥ä½ľ": 2205,
      "ä¸įå¾Ĺ": 2206,
      "åŃ¸": 2207,
      "çĦ¶åĲİ": 2208,
      "çīĻ": 2209,
      "è¯¢": 2210,
      "æļĸ": 2211,
      "åħµ": 2212,
      "è´¡": 2213,
      "èĩªèº«": 2214,
      "å¸ģ": 2215,
      "è¡ĮåĬ¨": 2216,
      "ç¼©": 2217,
      "åįģåĪĨ": 2218,
      "çļĦæĥħåĨµ": 2219,
      "å¥³æĢ§": 2220,
      "æĳĦ": 2221,
      "èī¯å¥½çļĦ": 2222,
      "ç»Ĩèĥŀ": 2223,
      "æ»¡è¶³": 2224,
      "åĮĸçļĦ": 2225,
      "å½Ĵ": 2226,
      "éĻ¤äºĨ": 2227,
      "è´¯å½»": 2228,
      "éĽĦ": 2229,
      "åĳ¼": 2230,
      "éĽ·": 2231,
      "é¼ĵ": 2232,
      "åĿı": 2233,
      "å¹ħ": 2234,
      "è®¨": 2235,
      "æĹ¥æľ¬": 2236,
      "åĩºäºĨ": 2237,
      "çİ¯ä¿Ŀ": 2238,
      "çĻ¼": 2239,
      "å·¦åı³": 2240,
      "éĢĶ": 2241,
      "è°ĥæķ´": 2242,
      "60": 2243,
      "é¡¶": 2244,
      "çģ¾": 2245,
      "ç¼ĵ": 2246,
      "å³°": 2247,
      "2020": 2248,
      "åŁºåľ°": 2249,
      "åĪĨåĪ«": 2250,
      "æĮĳ": 2251,
      "æĿ¨": 2252,
      "ç»Łä¸Ģ": 2253,
      "äººç±»": 2254,
      "--": 2255,
      "çĬ¶æĢģ": 2256,
      "éĩįè¦ģçļĦ": 2257,
      "åĭĩ": 2258,
      "å§Ķåĳĺä¼ļ": 2259,
      "ä¸»ä»»": 2260,
      "çļĦè¯Ŀ": 2261,
      "åĸľæ¬¢": 2262,
      "è¡¨éĿ¢": 2263,
      "åģı": 2264,
      "å®īè£ħ": 2265,
      "æľºåħ³": 2266,
      "æĸĳ": 2267,
      "æ¯Ķå¦Ĥ": 2268,
      "è¿Ĳè¡Į": 2269,
      "èªī": 2270,
      "æĸĩæĺİ": 2271,
      "å¦Ī": 2272,
      "ç½²": 2273,
      "çļĦæĸ°": 2274,
      "åħ³æ³¨": 2275,
      "ä¸¥æł¼": 2276,
      "è¯į": 2277,
      "æ³¡": 2278,
      "åĮĸåŃ¦": 2279,
      "äº¤æĺĵ": 2280,
      "éĽª": 2281,
      "æĺ¯ä¸Ģä¸ª": 2282,
      "ä¹³": 2283,
      "æīĵéĢł": 2284,
      "èĢģå¸Ī": 2285,
      "ç¬ĳ": 2286,
      "èĢĥèĻĳ": 2287,
      "åģļåĪ°": 2288,
      "è¿ĻéĩĮ": 2289,
      "ç»¿èī²": 2290,
      "èį¯çī©": 2291,
      "çļĦéĹ®é¢ĺ": 2292,
      "åĢĴ": 2293,
      "å²Ľ": 2294,
      "å°¤åħ¶": 2295,
      "ç¬¦åĲĪ": 2296,
      "åįĪ": 2297,
      "æħ§": 2298,
      "ä½ĵçļĦ": 2299,
      "æ¯ķä¸ļ": 2300,
      "æĮ¯": 2301,
      "ç§ĳçłĶ": 2302,
      "ç©ºæ°Ķ": 2303,
      "å¸¦æĿ¥": 2304,
      "è¡Ĺ": 2305,
      "å¾ª": 2306,
      "æ±ĩ": 2307,
      "ç»ıå¸¸": 2308,
      "äºĶè¡Į": 2309,
      "æ´ĭ": 2310,
      "äºĴèģĶç½ĳ": 2311,
      "24": 2312,
      "æ²ī": 2313,
      "å¡Ķ": 2314,
      "æ¦Ĥ": 2315,
      "èĻļ": 2316,
      "åı«": 2317,
      "éĥ½æľī": 2318,
      "çģ¯": 2319,
      "ä»Ĭå¤©": 2320,
      "æŃ¤å¤ĸ": 2321,
      "å°¿": 2322,
      "è¶ĬæĿ¥": 2323,
      "åħ¬åħ±": 2324,
      "çłģ": 2325,
      "çĻĮ": 2326,
      "ç»ĦæĪĲ": 2327,
      "è¯¯": 2328,
      "å°ıæĹ¶": 2329,
      "ç¬Ķ": 2330,
      "çĥ§": 2331,
      "è¶ĬæĿ¥è¶Ĭ": 2332,
      "æ³¨åĨĮ": 2333,
      "an": 2334,
      "åĲ§": 2335,
      "ä¹Łä¸į": 2336,
      "èĪĩ": 2337,
      "ç§ģ": 2338,
      "ä¿ĿéĻ©": 2339,
      "æķ°åŃĹ": 2340,
      "æĦŁæŁĵ": 2341,
      "åŁºéĩĳ": 2342,
      "åĿĲ": 2343,
      "æģ¶": 2344,
      "åĪ¶ä½ľ": 2345,
      "è®¢": 2346,
      "å±ŀäºİ": 2347,
      "åı¥è¯Ŀ": 2348,
      "è®¤çľŁ": 2349,
      "æķı": 2350,
      "è¶£": 2351,
      "è´¡çĮ®": 2352,
      "åĬłå¿«": 2353,
      "é¦ĸåħĪ": 2354,
      "çº·": 2355,
      "æĿŁ": 2356,
      "ä¸įåĲĮçļĦ": 2357,
      "çĶŁçļĦ": 2358,
      "åĳĪ": 2359,
      "åıªæĺ¯": 2360,
      "éĻĨ": 2361,
      "199": 2362,
      "å¡ŀ": 2363,
      "æ³°": 2364,
      "èĲ¥åħ»": 2365,
      "æĻ®éĢļ": 2366,
      "2021": 2367,
      "æ½®": 2368,
      "æ®Ĭ": 2369,
      "éĩĳå±ŀ": 2370,
      "ç½ļ": 2371,
      "åľĨ": 2372,
      "æĭį": 2373,
      "æĿ¥çľĭ": 2374,
      "åĨ°": 2375,
      "æŃ£åľ¨": 2376,
      "è°ĥæŁ¥": 2377,
      "è¡¡": 2378,
      "åĵĪ": 2379,
      "è±Ĩ": 2380,
      "éĿĴå¹´": 2381,
      "æĪĲç»©": 2382,
      "æľīäºĽ": 2383,
      "æķĪçİĩ": 2384,
      "ä¸ºä¸»": 2385,
      "æĸ°æĹ¶ä»£": 2386,
      "ç¹ģ": 2387,
      "æĹ¶æľŁ": 2388,
      "ç§ĭ": 2389,
      "æĶ¹åıĺ": 2390,
      "æľ«": 2391,
      "è¿Ĳè¾ĵ": 2392,
      "è¾Ĩ": 2393,
      "çĪĨ": 2394,
      "ä¹ĭåīį": 2395,
      "å®½": 2396,
      "éĩİ": 2397,
      "æľºä¼ļ": 2398,
      "æ´¥": 2399,
      "ä¸ĭéĻį": 2400,
      "çĽ®çļĦ": 2401,
      "åĬŀåħ¬": 2402,
      "åħļå§Ķ": 2403,
      "éĴĪå¯¹": 2404,
      "åįµ": 2405,
      "å¢Ļ": 2406,
      "æĦıè§ģ": 2407,
      "åĪ¶å®ļ": 2408,
      "ç¥ĸ": 2409,
      "åİŁåĪĻ": 2410,
      "çľŁæŃ£": 2411,
      "åªĴä½ĵ": 2412,
      "å«": 2413,
      "ç¡®å®ļ": 2414,
      "æ¾³": 2415,
      "çİ»": 2416,
      "æľĢç»Ī": 2417,
      "æļ´": 2418,
      "ä¼į": 2419,
      "æ¢ģ": 2420,
      "çĿ¡": 2421,
      "æ¥Ń": 2422,
      "æĺł": 2423,
      "80": 2424,
      "æ°§åĮĸ": 2425,
      "èĥĥ": 2426,
      "å¾Ħ": 2427,
      "ä¹Ļ": 2428,
      "è´´": 2429,
      "è®¤è¯Ĩ": 2430,
      "æ£®": 2431,
      "éŁ©": 2432,
      "é¢ľ": 2433,
      "æĸ¼": 2434,
      "è·¨": 2435,
      "èĢĥè¯ķ": 2436,
      "è¼": 2437,
      "å¯¿": 2438,
      "åŃĶ": 2439,
      "åŃ¦ç§ĳ": 2440,
      "åı¦å¤ĸ": 2441,
      "äºĮåįģ": 2442,
      "é¾Ħ": 2443,
      "æķ´ä¸ª": 2444,
      "åĶĲ": 2445,
      "å¹¿å¤§": 2446,
      "æ¢ħ": 2447,
      "çħ¤": 2448,
      "åı¬": 2449,
      "2019": 2450,
      "éļĲ": 2451,
      "å°±ä¸ļ": 2452,
      "çĽĲ": 2453,
      "çī¢": 2454,
      "è¯¾ç¨ĭ": 2455,
      "çĴĥ": 2456,
      "åĦ¿ç«¥": 2457,
      "ç¶ĵ": 2458,
      "çĦ¦": 2459,
      "æ¥ļ": 2460,
      "éĢŁåº¦": 2461,
      "ä¼°": 2462,
      "çº¯": 2463,
      "æ²»çĲĨ": 2464,
      "æĭĵ": 2465,
      "èµĦäº§": 2466,
      "åĬĽçļĦ": 2467,
      "åĨľæĿĳ": 2468,
      "æķħäºĭ": 2469,
      "ç§ĺ": 2470,
      "ä¹Łä¼ļ": 2471,
      "æµĵ": 2472,
      "ä¸Ģä¸ĭ": 2473,
      "åħ±äº§": 2474,
      "éĽĨä¸Ń": 2475,
      "å¯»": 2476,
      "åķĨä¸ļ": 2477,
      "å¥¶": 2478,
      "ä¹±": 2479,
      "23": 2480,
      "åĪĽä¸ļ": 2481,
      "èĢĹ": 2482,
      "æĥł": 2483,
      "éĿ¢å¯¹": 2484,
      "å¯Ĵ": 2485,
      "åıªè¦ģ": 2486,
      "æķ´ä½ĵ": 2487,
      "æĢķ": 2488,
      "ç¯ĩ": 2489,
      "èĪ¹": 2490,
      "æĶ¹åĸĦ": 2491,
      "æī¶": 2492,
      "åįıä¼ļ": 2493,
      "åĲİçļĦ": 2494,
      "ä¿Ħ": 2495,
      "åĩºçļĦ": 2496,
      "å¹ķ": 2497,
      "æľīä¸Ģ": 2498,
      "å°Ĭ": 2499,
      "ç»ķ": 2500,
      "åĢį": 2501,
      "2018": 2502,
      "ä¾§": 2503,
      "åĸĿ": 2504,
      "åįĸ": 2505,
      "å¹¶ä¸į": 2506,
      "çİ»çĴĥ": 2507,
      "æĬĺ": 2508,
      "ä»İäºĭ": 2509,
      "æĸ¹ä¾¿": 2510,
      "âĢĿãĢģâĢľ": 2511,
      "éĢĤåĲĪ": 2512,
      "éº»": 2513,
      "å¼ºè°ĥ": 2514,
      "æł¹æľ¬": 2515,
      "èĤĿ": 2516,
      "æ¶Īè´¹èĢħ": 2517,
      "çī©æµģ": 2518,
      "éĿ©åĳ½": 2519,
      "çı¾": 2520,
      "21": 2521,
      "å¦ĤæŃ¤": 2522,
      "å¾Į": 2523,
      "æ³¥": 2524,
      "ä¾Ŀæ³ķ": 2525,
      "æİī": 2526,
      "åĽ°éļ¾": 2527,
      "èĳ£": 2528,
      "å·¥ä½ľçļĦ": 2529,
      "è¿ĩåİ»": 2530,
      "åĬŀæ³ķ": 2531,
      "å½ĵæĹ¶": 2532,
      "æĹĹ": 2533,
      "åıįåºĶ": 2534,
      "éĩįè§Ĩ": 2535,
      "è¿Ļæł·çļĦ": 2536,
      "åĭķ": 2537,
      "éģį": 2538,
      "åĪĳ": 2539,
      "æģ¢": 2540,
      "å¤ļçļĦ": 2541,
      "ç¾İåħĥ": 2542,
      "èĢ³": 2543,
      "æĥ¯": 2544,
      "éģĵè·¯": 2545,
      "æº¶": 2546,
      "åħ¨éĥ¨": 2547,
      "éĵĿ": 2548,
      "ä¸įå°ĳ": 2549,
      "ç§Ł": 2550,
      "ãĢģãĢĬ": 2551,
      "å§ĭç»Ī": 2552,
      "åľĪ": 2553,
      "èµ¢": 2554,
      "éĺµ": 2555,
      "èĤ¿": 2556,
      "ä¸Ģå®ļè¦ģ": 2557,
      "æĬĢèĥ½": 2558,
      "éĹŃ": 2559,
      "èĴĻ": 2560,
      "é¦Ļæ¸¯": 2561,
      "22": 2562,
      "çī¹æ®Ĭ": 2563,
      "å¤ļç§į": 2564,
      "æĦŁè§ī": 2565,
      "äº¡": 2566,
      "æĹ§": 2567,
      "å½ĵåľ°": 2568,
      "æŃ£ç¡®": 2569,
      "å±ĭ": 2570,
      "æµª": 2571,
      "æ²Ł": 2572,
      "æĹ¥å¸¸": 2573,
      "æ²¿": 2574,
      "èĥİ": 2575,
      "é«ĺè´¨éĩı": 2576,
      "åĩĨå¤ĩ": 2577,
      "çĶµè§Ĩ": 2578,
      "è¿ĲèĲ¥": 2579,
      "ä¸Ģå®ļçļĦ": 2580,
      "èĤ¯": 2581,
      "é¸¡": 2582,
      "éĢļå¸¸": 2583,
      "è´¹çĶ¨": 2584,
      "è¦Ĩ": 2585,
      "éĩĩåıĸ": 2586,
      "ä¸ªæľĪ": 2587,
      "çĽĳç®¡": 2588,
      "2022": 2589,
      "ä¾µ": 2590,
      "èĤł": 2591,
      "æĿ¥èĩª": 2592,
      "ä¼Ĭ": 2593,
      "è¯º": 2594,
      "ä¼ģä¸ļçļĦ": 2595,
      "åĲ¨": 2596,
      "éĥ½ä¼ļ": 2597,
      "çŃ¹": 2598,
      "ç²Ĵ": 2599,
      "èĤº": 2600,
      "çĲĨè§£": 2601,
      "æĻºæħ§": 2602,
      "è·ĳ": 2603,
      "èħ¹": 2604,
      "å¼ºåĮĸ": 2605,
      "çĲĥéĺŁ": 2606,
      "éī": 2607,
      "æ¡£": 2608,
      "çĽ¸ä¿¡": 2609,
      "in": 2610,
      "åĲĦç±»": 2611,
      "çªĹ": 2612,
      "è¯¦": 2613,
      "çĽ¸å¯¹": 2614,
      "è¶ĭ": 2615,
      "±ä¹Ĳ": 2616,
      "èĥ¡": 2617,
      "è¿·": 2618,
      "å¤§ä¼ļ": 2619,
      "é«ĺåº¦": 2620,
      "é«ĺæł¡": 2621,
      "é¢Ħéĺ²": 2622,
      "èĲ¨": 2623,
      "ç¯®": 2624,
      "æĪª": 2625,
      "èĤĮ": 2626,
      "é¥®é£Ł": 2627,
      "èĩªçĶ±": 2628,
      "æŃ¤æ¬¡": 2629,
      "åĲĮå¿Ĺ": 2630,
      "ä¸»é¢ĺ": 2631,
      "æķĻæİĪ": 2632,
      "åĮħè£ħ": 2633,
      "è¿ħ": 2634,
      "å¥ĭæĸĹ": 2635,
      "æ´Ľ": 2636,
      "çİ°è±¡": 2637,
      "é«Ķ": 2638,
      "èªª": 2639,
      "æ¯ıå¤©": 2640,
      "åĲĦé¡¹": 2641,
      "æģ¢å¤į": 2642,
      "å¿ĺ": 2643,
      "å®ĥçļĦ": 2644,
      "éľĩ": 2645,
      "æŃ£å¼ı": 2646,
      "çİ°ä»£åĮĸ": 2647,
      "è½¯ä»¶": 2648,
      "åıĮæĸ¹": 2649,
      "70": 2650,
      "æ¤įçī©": 2651,
      "è´¨çļĦ": 2652,
      "èģĶç³»": 2653,
      "è¾ħ": 2654,
      "å®īæİĴ": 2655,
      "éĨĴ": 2656,
      "æ®ĸ": 2657,
      "ç¼ĺ": 2658,
      "çŀ": 2659,
      "æģ©": 2660,
      "æ½ľ": 2661,
      "éķľ": 2662,
      "__": 2663,
      "åĩºåı£": 2664,
      "å¼¹": 2665,
      "èµµ": 2666,
      "ç¤¾åĮº": 2667,
      "åĪ¸": 2668,
      "åħ·å¤ĩ": 2669,
      "åħ¼": 2670,
      "è§īå¾Ĺ": 2671,
      "çĵ¦": 2672,
      "è¯¸": 2673,
      "ä¸ľè¥¿": 2674,
      "åĴ¨": 2675,
      "ä¾ĽåºĶ": 2676,
      "ä¸ŃåĽ½çī¹èī²": 2677,
      "èµĦæľ¬": 2678,
      "åħ¬éĩĮ": 2679,
      "28": 2680,
      "åĪ·": 2681,
      "ä¸įè¶³": 2682,
      "æ³½": 2683,
      "èŀįåĲĪ": 2684,
      "ä¸ŃåĮ»": 2685,
      "åĬ¨åĬĽ": 2686,
      "æı´": 2687,
      "èĢĮæĺ¯": 2688,
      "éĶħ": 2689,
      "ãĢĲ": 2690,
      "æĬķåħ¥": 2691,
      "éī´": 2692,
      "åŃĻ": 2693,
      "åĮ»çĶŁ": 2694,
      "å¤§å¤ļ": 2695,
      "ãĢĳ": 2696,
      "æĽ¾ç»ı": 2697,
      "åį·": 2698,
      "å±±ä¸ľ": 2699,
      "æķ¬": 2700,
      "ç«Ł": 2701,
      "åķĨåĵģ": 2702,
      "èĵĿ": 2703,
      "å¹¼": 2704,
      "æīİ": 2705,
      "éŁ³ä¹Ĳ": 2706,
      "å¹³æĸ¹": 2707,
      "çĤ¼": 2708,
      "è°ĵ": 2709,
      "ä»ģ": 2710,
      "éĺ²æŃ¢": 2711,
      "åĶ¯": 2712,
      "åĭ¤": 2713,
      "äººä½ĵ": 2714,
      "åĪĨä¸º": 2715,
      "è£ģ": 2716,
      "çĶĺ": 2717,
      "æĹłè®º": 2718,
      "ä½įäºİ": 2719,
      "åĨħçļĦ": 2720,
      "æ¯«": 2721,
      "è§Ĩé¢ĳ": 2722,
      "æĲŃ": 2723,
      "å¹¸ç¦ı": 2724,
      "ç²ĺ": 2725,
      "åĲ´": 2726,
      "åĬłåħ¥": 2727,
      "åĪ©çĽĬ": 2728,
      "ä¸ĭæĿ¥": 2729,
      "«çĹ": 2730,
      "26": 2731,
      "ä¸ĢåĪĩ": 2732,
      "æĳ©": 2733,
      "è¾Ľ": 2734,
      "æĢ»ä¹¦è®°": 2735,
      "éĺŁä¼į": 2736,
      "ç¿»": 2737,
      "èµĦæĸĻ": 2738,
      "å¿ħè¦ģ": 2739,
      "éķ·": 2740,
      "æ¹¾": 2741,
      "ç·": 2742,
      "ä¹łæĥ¯": 2743,
      "åĩºæĿ¥": 2744,
      "åĢº": 2745,
      "åĴ¨è¯¢": 2746,
      "ä¸įåĪ°": 2747,
      "æīĭæľ¯": 2748,
      "æĢ§åĴĮ": 2749,
      "çº¤": 2750,
      "å°ĺ": 2751,
      "æĸ°éĹ»": 2752,
      "æ·¡": 2753,
      "åľ³": 2754,
      "æµĻ": 2755,
      "ä¹Į": 2756,
      "éĽħ": 2757,
      "æķ¢": 2758,
      "è¯´è¿ĩ": 2759,
      "æł·çļĦ": 2760,
      "è´·": 2761,
      "æ·±åľ³": 2762,
      "çĶŁç´ł": 2763,
      "è°ģ": 2764,
      "èĦī": 2765,
      "åĨįæ¬¡": 2766,
      "åĵªäºĽ": 2767,
      "èĭĹ": 2768,
      "ä»¥åĲİ": 2769,
      "çĪ¶æ¯į": 2770,
      "æľīæľº": 2771,
      "ä¼Łå¤§": 2772,
      "å½ĵçĦ¶": 2773,
      "æķ°éĩı": 2774,
      "èģĮå·¥": 2775,
      "æ©Ł": 2776,
      "é²ģ": 2777,
      "ä¸´åºĬ": 2778,
      "æľīæīĢ": 2779,
      "ç¬¬åįģ": 2780,
      "åĲĪåĲĮ": 2781,
      "åĲĮæ¯Ķ": 2782,
      "çĻ«çĹ": 2783,
      "çĻ«çĹ«": 2784,
      "åĮ»åŃ¦": 2785,
      "ãĢĭãĢģãĢĬ": 2786,
      "å¹¿ä¸ľ": 2787,
      "ä½įç½®": 2788,
      "çŃīæĸ¹éĿ¢": 2789,
      "ä½ĵçİ°": 2790,
      "2017": 2791,
      "èĸĦ": 2792,
      "æľĹ": 2793,
      "è§Ī": 2794,
      "æ¶¨": 2795,
      "äº¦": 2796,
      "ä¹ı": 2797,
      "è´¸æĺĵ": 2798,
      "éģµ": 2799,
      "è«": 2800,
      "æŀĦå»º": 2801,
      "è¿ª": 2802,
      "æĽ´å¥½": 2803,
      "çĦ¶èĢĮ": 2804,
      "é¥Ń": 2805,
      "è¯Ħä»·": 2806,
      "èµĦæł¼": 2807,
      "æī©å¤§": 2808,
      "ä¸ģ": 2809,
      "æĽ¿": 2810,
      "çĳŀ": 2811,
      "æĤī": 2812,
      "åĶ±": 2813,
      "å©´": 2814,
      "æ°ı": 2815,
      "å¢¨": 2816,
      "èħº": 2817,
      "Â°": 2818,
      "ä¸»åĬ¨": 2819,
      "å®ĥä»¬": 2820,
      "çĦ¡": 2821,
      ")(": 2822,
      "çļĦå°ı": 2823,
      "æĪĲéķ¿": 2824,
      "åĸ·": 2825,
      "åģ¿": 2826,
      "äº§åĵģçļĦ": 2827,
      "èģĺ": 2828,
      "å£®": 2829,
      "æīĭæľº": 2830,
      "å¤º": 2831,
      "ä¼ĺåĮĸ": 2832,
      "åĲĮåŃ¦": 2833,
      "ç¨ĭåºı": 2834,
      "è¿Ľè¡ĮäºĨ": 2835,
      "ä¹ĺ": 2836,
      "åĩ¡": 2837,
      "çĹħæ¯Ĵ": 2838,
      "åı¦ä¸Ģ": 2839,
      "åĪºæ¿Ģ": 2840,
      "ä¿Ĺ": 2841,
      "æ·»": 2842,
      "ä¸»å¸Ń": 2843,
      "è£Ĥ": 2844,
      "èµĽåŃ£": 2845,
      "çªģçł´": 2846,
      "èĦı": 2847,
      "éĢĲæ¸Ĳ": 2848,
      "éĢĤåºĶ": 2849,
      "ç»ª": 2850,
      "ç¥Ŀ": 2851,
      "ç´«": 2852,
      "å½¢è±¡": 2853,
      "çĺ¤": 2854,
      "è°·": 2855,
      "å¾Ģå¾Ģ": 2856,
      "å¤§åŀĭ": 2857,
      "ä¹Łåı¯ä»¥": 2858,
      "çĻ£": 2859,
      "27": 2860,
      "èĪĴ": 2861,
      "çļĦä¸»è¦ģ": 2862,
      "çļĦä½ľçĶ¨": 2863,
      "åĿļå®ļ": 2864,
      "æ¶µ": 2865,
      "èİ«": 2866,
      "ç¬¬åĽĽ": 2867,
      "å¤ļä¸ª": 2868,
      "è¿ŀç»Ń": 2869,
      "å¼ķå¯¼": 2870,
      "å¼ĥ": 2871,
      "æī¿æĭħ": 2872,
      "å¼Ł": 2873,
      "æľ±": 2874,
      "äººåı£": 2875,
      "ä»ĸä»¬çļĦ": 2876,
      "ä¸ĸçºª": 2877,
      "é¡¿": 2878,
      "éĵľ": 2879,
      "æ®ĭ": 2880,
      "ç¤ºèĮĥ": 2881,
      "æľĢå¤§çļĦ": 2882,
      "èļĢ": 2883,
      "å¼ºåº¦": 2884,
      "è½´": 2885,
      "èĽĭçĻ½": 2886,
      "èĩªæĪĳ": 2887,
      "æĽ¼": 2888,
      "åħįçĸ«": 2889,
      "åĵ¥": 2890,
      "ä»įçĦ¶": 2891,
      "æ¯ıä¸ª": 2892,
      "æĥĬ": 2893,
      "æĪĲåĳĺ": 2894,
      "å¤įæĿĤ": 2895,
      "è¿Ļåı¥è¯Ŀ": 2896,
      "å®ĭ": 2897,
      "ä¾ĭå¦Ĥ": 2898,
      "è¿¹": 2899,
      "æĥ³è¦ģ": 2900,
      "çĹħæĥħ": 2901,
      "è¿ĺè¦ģ": 2902,
      "çªģåĩº": 2903,
      "åºĦ": 2904,
      "åĳĬè¯ī": 2905,
      "ä¸ĭçļĦ": 2906,
      "ä¼¦": 2907,
      "æĭŁ": 2908,
      "ä¼Ļ": 2909,
      "æĿ°": 2910,
      "æľīäºº": 2911,
      "æľīäºĨ": 2912,
      "çīĽçļ®": 2913,
      "éĥĳ": 2914,
      "åįĩçº§": 2915,
      "çıł": 2916,
      "æİĮæı¡": 2917,
      "æ¶īåıĬ": 2918,
      "çļĦæľĢ": 2919,
      "æ¼«": 2920,
      "35": 2921,
      "å¤Ħäºİ": 2922,
      "æ§": 2923,
      "æģĴ": 2924,
      "å²Ĺä½į": 2925,
      "å»ī": 2926,
      "çķ¶": 2927,
      "ä¸ŃåĽ½çī¹èī²ç¤¾ä¼ļä¸»ä¹ī": 2928,
      "åĪĢ": 2929,
      "é©¾": 2930,
      "æĹ¦": 2931,
      "æĬµ": 2932,
      "åįıè°ĥ": 2933,
      "éĸĵ": 2934,
      "åı¯èĥ½ä¼ļ": 2935,
      "åľ£": 2936,
      "æĬ¥éģĵ": 2937,
      "çĲĨæĥ³": 2938,
      "å®ŀåĬĽ": 2939,
      "æ·±åĪ»": 2940,
      "çļĦå½±åĵį": 2941,
      "åĪ©äºİ": 2942,
      "ä½ĵéªĮ": 2943,
      "æĺ¯ä»Ģä¹Ī": 2944,
      "æĬ½": 2945,
      "éĤ£äºĽ": 2946,
      "è»": 2947,
      "ä¸ºä»Ģä¹Ī": 2948,
      "åĵģè´¨": 2949,
      "åĮĸå·¥": 2950,
      "è¯´æĺİ": 2951,
      "å¹¿å·ŀ": 2952,
      "çī¹åĪ«æĺ¯": 2953,
      "å±ķç¤º": 2954,
      "å®ĩ": 2955,
      "åĩŃ": 2956,
      "æµ®": 2957,
      "è´Ńä¹°": 2958,
      "éĶĭ": 2959,
      "æĪĲäºĨ": 2960,
      "ç»Łè®¡": 2961,
      "çĮª": 2962,
      "åĨħéĥ¨": 2963,
      "éĢ²": 2964,
      "æľºåĻ¨": 2965,
      "åİĤå®¶": 2966,
      "åħ¬å¼Ģ": 2967,
      "å¡ĳæĸĻ": 2968,
      "å¦»": 2969,
      "èĬĤèĥ½": 2970,
      "æľ¬æ¬¡": 2971,
      "å§ĵ": 2972,
      "å¯¦": 2973,
      "å±¥": 2974,
      "åıªèĥ½": 2975,
      "æĺĮ": 2976,
      "èĦ¸": 2977,
      "å¾Ĳ": 2978,
      "éĥ¨ç½²": 2979,
      "åľŁåľ°": 2980,
      "æĮĳæĪĺ": 2981,
      "é«ĺéĢŁ": 2982,
      "å£ģ": 2983,
      "å¸¸è§ģ": 2984,
      "æ³ķéĻ¢": 2985,
      "è¯ģæĺİ": 2986,
      "çĬ¯ç½ª": 2987,
      "ç´łè´¨": 2988,
      "è°ĭ": 2989,
      "éĩıçļĦ": 2990,
      "çĶ¨çļĦ": 2991,
      "åĲ«æľī": 2992,
      "å¹´åº¦": 2993,
      "ä¸Ĭå¸Ĥ": 2994,
      "èħĶ": 2995,
      "90": 2996,
      "çīĽçļ®çĻ£": 2997,
      "ç£ģ": 2998,
      "æµĻæ±Ł": 2999,
      "å·§": 3000,
      "åĽ½åĬ¡": 3001,
      "è®¯": 3002,
      "çĽ¸æ¯Ķ": 3003,
      "å±ı": 3004,
      "çĶµæ±ł": 3005,
      "ä¸¾åĬŀ": 3006,
      "æ±¤": 3007,
      "åĬ¨çī©": 3008,
      "ä¸Ģä½ĵ": 3009,
      "éĸĭ": 3010,
      "ä¸īä¸ª": 3011,
      "åħĪçĶŁ": 3012,
      "æĭľ": 3013,
      "åİ»å¹´": 3014,
      "è´Łè´£äºº": 3015,
      "ç§°ä¸º": 3016,
      "å±ħæ°ĳ": 3017,
      "èĻ«": 3018,
      "è¿ĽæŃ¥": 3019,
      "éĹľ": 3020,
      "åħ§": 3021,
      "çİ°å®ŀ": 3022,
      "çģ°": 3023,
      "ä¸¹": 3024,
      "æĢĿèĢĥ": 3025,
      "æĪ´": 3026,
      "å½ĵåīį": 3027,
      "å¾ªçİ¯": 3028,
      "æİ¢ç´¢": 3029,
      "èĩªä¸»": 3030,
      "å®¶éķ¿": 3031,
      "åĽĽå·Ŀ": 3032,
      "ä½¿åĳ½": 3033,
      "èĳ£äºĭ": 3034,
      "èį·": 3035,
      "è¿ħéĢŁ": 3036,
      "èī¯å¥½": 3037,
      "èĴ¸": 3038,
      "å¿ł": 3039,
      "è´Ŀ": 3040,
      "åħ±äº§åħļ": 3041,
      "æľīçĿĢ": 3042,
      "æ·±åĮĸ": 3043,
      "åıĬåħ¶": 3044,
      "æİ¥è§¦": 3045,
      "çıį": 3046,
      "æĢ»ç»ĵ": 3047,
      "500": 3048,
      "çĶŁéķ¿": 3049,
      "æĸĩä»¶": 3050,
      "ç¢į": 3051,
      "çŃīçŃī": 3052,
      "åľ°ä½į": 3053,
      "éģŃ": 3054,
      "ç¾Ĭ": 3055,
      "åħ¨ä½ĵ": 3056,
      "é¢ĨåħĪ": 3057,
      "æĬĳ": 3058,
      "å¼ºçļĦ": 3059,
      "çģŃ": 3060,
      "åĺī": 3061,
      "ç»´çĶŁç´ł": 3062,
      "å¹´è½»": 3063,
      "åŃ¦æľ¯": 3064,
      "è§Ĵåº¦": 3065,
      "æ³ī": 3066,
      "è¿½æ±Ĥ": 3067,
      "èĤ¡ä»½": 3068,
      "æ¬²": 3069,
      "ä¼łæĴŃ": 3070,
      "æİ¨å¹¿": 3071,
      "ç¨®": 3072,
      "ä¸Ģå¹´": 3073,
      "çļĦæĹ¶éĹ´": 3074,
      "æ»¤": 3075,
      "é»ĺ": 3076,
      "çĩ¥": 3077,
      "çĥ¯": 3078,
      "è´¢æĶ¿": 3079,
      "æĻ¶": 3080,
      "åĲĦåľ°": 3081,
      "æ¯ıå¹´": 3082,
      "æĩī": 3083,
      "ä¸¾è¡Į": 3084,
      "å¦Ĥä»Ĭ": 3085,
      "åĩºçĶŁ": 3086,
      "åĽ½åĬ¡éĻ¢": 3087,
      "çĶŁæ´»ä¸Ń": 3088,
      "è¯ķéªĮ": 3089,
      "åķĨæłĩ": 3090,
      "èĤ¾": 3091,
      "æ°¨": 3092,
      "çĭ¬ç«ĭ": 3093,
      "éĺħ": 3094,
      "åĨłåĨĽ": 3095,
      "å°¤åħ¶æĺ¯": 3096,
      "åĪĨåŃĲ": 3097,
      "è¿ĲçĶ¨": 3098,
      "å¤§åĬĽ": 3099,
      "å²¸": 3100,
      "ä¸»ä½ĵ": 3101,
      "çļĦåŁºç¡Ģ": 3102,
      "åĲĽ": 3103,
      "éĽ»": 3104,
      "è®¾ç½®": 3105,
      "ä¸Ńå°ı": 3106,
      "æĦĪ": 3107,
      "è´¦": 3108,
      "åħ¬åı¸çļĦ": 3109,
      "ç²®": 3110,
      "æĹº": 3111,
      "éĤĦ": 3112,
      "åĿĢ": 3113,
      "çĲĥåĳĺ": 3114,
      "æĮĤ": 3115,
      "æ²³åįĹ": 3116,
      "ç»ıåİĨ": 3117,
      "ç±»åŀĭ": 3118,
      "äºĭä»¶": 3119,
      "æħİ": 3120,
      "æĶ¯ä»ĺ": 3121,
      "çļĦæ²»çĸĹ": 3122,
      "ä¹ĭéĹ´çļĦ": 3123,
      "è¯Ńè¨Ģ": 3124,
      "å§Ĩ": 3125,
      "ç»ıçĲĨ": 3126,
      "åŁºå±Ĥ": 3127,
      "è®²è¯Ŀ": 3128,
      "çĶ¢": 3129,
      "èĢĮè¨Ģ": 3130,
      "è®Ńç»ĥ": 3131,
      "äººå£«": 3132,
      "è¿Ļä¸ªéĹ®é¢ĺ": 3133,
      "2016": 3134,
      "ç»ĵæĿŁ": 3135,
      "èµŀ": 3136,
      "å°±åı¯ä»¥": 3137,
      "29": 3138,
      "çĽ¸å½ĵ": 3139,
      "éĿ¢ä¸´": 3140,
      "å®ı": 3141,
      "èĢħçļĦ": 3142,
      "è·³": 3143,
      "åĲ¸å¼ķ": 3144,
      "å±ĳ": 3145,
      "è§Ĥä¼Ĺ": 3146,
      "æŁĶ": 3147,
      "éĩįåºĨ": 3148,
      "äºĭæķħ": 3149,
      "ç§¦": 3150,
      "æĴĳ": 3151,
      "éħįåĲĪ": 3152,
      "åį±å®³": 3153,
      "åĽ´ç»ķ": 3154,
      "å¾·åĽ½": 3155,
      "äººå·¥": 3156,
      "on": 3157,
      "å¹³åĿĩ": 3158,
      "è¿ĳå¹´æĿ¥": 3159,
      "å¤ªéĺ³": 3160,
      "ç½Ĺæĸ¯": 3161,
      "çŁ¥åĲį": 3162,
      "æĹ¨": 3163,
      "æľĢé«ĺ": 3164,
      "æĭĴ": 3165,
      "æ°ĳä¸»": 3166,
      "äºĭæĥħ": 3167,
      "æĿĨ": 3168,
      "éĻ¶": 3169,
      "æ¬¢è¿İ": 3170,
      "çĬ¶åĨµ": 3171,
      "æĺ¯æĮĩ": 3172,
      "é£ŁçĶ¨": 3173,
      "åĲ¸æĶ¶": 3174,
      "è±ª": 3175,
      "èĢģå¹´": 3176,
      "åį³ä½¿": 3177,
      "æĥħç»ª": 3178,
      "é¢Ĺ": 3179,
      "èĩªæ²»": 3180,
      "æ¬§æ´²": 3181,
      "çĽ¸åºĶ": 3182,
      "åĢ¼å¾Ĺ": 3183,
      "æį·": 3184,
      "ç±į": 3185,
      "äºĭå®ŀ": 3186,
      "æ±Łèĭı": 3187,
      "ç»ĻäºĪ": 3188,
      "éĿ¢çļĦ": 3189,
      "ä¼¯": 3190,
      "å¤ļå°ĳ": 3191,
      "å¥ī": 3192,
      "æ±¡æ°´": 3193,
      "å®ŀéªĮå®¤": 3194,
      "æľ¬èº«": 3195,
      "å¹¿åĳĬ": 3196,
      "æ¦ľ": 3197,
      "èĤ¯å®ļ": 3198,
      "er": 3199,
      "è¾ĳ": 3200,
      "æľºçļĦ": 3201,
      "æĬ¢": 3202,
      "âĢĿâĢľ": 3203,
      "é¼ĵåĬ±": 3204,
      "æ¡ĥ": 3205,
      "è¿«": 3206,
      "æĪĲå°±": 3207,
      "æĳĨ": 3208,
      "2015": 3209,
      "ä¹łè¿ĳå¹³æĢ»ä¹¦è®°": 3210,
      "ä¸»æĮģ": 3211,
      "éŀ": 3212,
      "åĩĨç¡®": 3213,
      "èİ±": 3214,
      "æļĹ": 3215,
      "èĭ±åĽ½": 3216,
      "èĲ¥éĶĢ": 3217,
      "è¾ī": 3218,
      "åħ¬è·¯": 3219,
      "å±ķå¼Ģ": 3220,
      "é«ĺæķĪ": 3221,
      "æ³Į": 3222,
      "åħĥç´ł": 3223,
      "å¡«": 3224,
      "ä¸°å¯ĮçļĦ": 3225,
      "åĽ¢ç»ĵ": 3226,
      "èģĶèµĽ": 3227,
      "éĢĴ": 3228,
      "èµı": 3229,
      "çļĦå¿ĥ": 3230,
      "ä»¤äºº": 3231,
      "æ³µ": 3232,
      "ç¥ŀç»ı": 3233,
      "å¾Īå¤§": 3234,
      "æĹĭ": 3235,
      "æī¾åĪ°": 3236,
      "è¡Ģç®¡": 3237,
      "æµĭè¯ķ": 3238,
      "æİĴåĲį": 3239,
      "è¶ĭåĬ¿": 3240,
      "æŃ¦æ±ī": 3241,
      "èķ": 3242,
      "éĻ·": 3243,
      "æ¯ıä¸Ģ": 3244,
      "åħĪåĲİ": 3245,
      "è¦ĨçĽĸ": 3246,
      "çº¤ç»´": 3247,
      "å®ŀè¡Į": 3248,
      "æĩĤ": 3249,
      "åįıè®®": 3250,
      "åı¬å¼Ģ": 3251,
      "åĭĴ": 3252,
      "è¹": 3253,
      "æľ¬ç§ĳ": 3254,
      "æľĢå¤§": 3255,
      "æīĭæ®µ": 3256,
      ",ãĢĬ": 3257,
      "198": 3258,
      "å¤©çĦ¶": 3259,
      "ä¼ı": 3260,
      "å·¥åħ·": 3261,
      "æĭĶ": 3262,
      "ä¸įèī¯": 3263,
      "çº¹": 3264,
      "äººçĶŁ": 3265,
      "æıı": 3266,
      "è½¨": 3267,
      "çĽ¸äºĴ": 3268,
      "å¹³æĸ¹ç±³": 3269,
      "åĵ²": 3270,
      "åįļå£«": 3271,
      "è¿Ķ": 3272,
      "æĪĳåĢĳ": 3273,
      "ä¿Ŀæ¸©": 3274,
      "æ¯Ķä¾ĭ": 3275,
      "åĲ«éĩı": 3276,
      "éĢļçŁ¥": 3277,
      "å¸ĥå±Ģ": 3278,
      "çĵľ": 3279,
      "æŁ±": 3280,
      "åŃĲçļĦ": 3281,
      "åĬłå¤§": 3282,
      "çļĦäº§åĵģ": 3283,
      "çĻ½æĸĳ": 3284,
      "æ¸ł": 3285,
      "åĿĽ": 3286,
      "åĹ": 3287,
      "é©±": 3288,
      "å°ĳå¹´": 3289,
      "éº¦": 3290,
      "çļĦæĸ¹å¼ı": 3291,
      "å¯¿åĳ½": 3292,
      "ç«¹": 3293,
      "çļĦåľ°æĸ¹": 3294,
      "éĵģè·¯": 3295,
      "æĸ°åŀĭ": 3296,
      "æĻĵ": 3297,
      "é©¶": 3298,
      "æ¨ª": 3299,
      "æ´ŀ": 3300,
      "è¶³çĲĥ": 3301,
      "æ¶Īéĺ²": 3302,
      "çľŁçļĦ": 3303,
      "åį±éĻ©": 3304,
      "èŀº": 3305,
      "éĶĪ": 3306,
      "åĿ¦": 3307,
      "çļĦä¼ģä¸ļ": 3308,
      "çĤī": 3309,
      "ä¹¡æĿĳ": 3310,
      "æī£": 3311,
      "é¡ºåĪ©": 3312,
      "ãĢĤ(": 3313,
      "ä¼¸": 3314,
      "çį": 3315,
      "èĶ¬": 3316,
      "è®¤è¯ģ": 3317,
      "å¤ļå¹´": 3318,
      "åĪĩå®ŀ": 3319,
      "æĿľ": 3320,
      "é¢ľèī²": 3321,
      "è½¦è¾Ĩ": 3322,
      "éĩįæĸ°": 3323,
      "å©´åĦ¿": 3324,
      "è¿Ļä¹Ī": 3325,
      "ç§»åĬ¨": 3326,
      "åĪ¶åĵģ": 3327,
      "é©¬åħĭ": 3328,
      "åķĨåĬ¡": 3329,
      "æ³ķè§Ħ": 3330,
      "å°ĩ": 3331,
      "æĶ¾åľ¨": 3332,
      "çĵ¶": 3333,
      "ä¸ĢçĤ¹": 3334,
      "èįĲ": 3335,
      "å¤§å¤§": 3336,
      "é£İæł¼": 3337,
      "å¹´é¾Ħ": 3338,
      "æ³¨éĩį": 3339,
      "éļĨ": 3340,
      "åĪ«äºº": 3341,
      "æĸ¹éĿ¢çļĦ": 3342,
      "è¯¦ç»Ĩ": 3343,
      "ä¼¼ä¹İ": 3344,
      "éĽķ": 3345,
      "è£ħå¤ĩ": 3346,
      "å¿½": 3347,
      "ä½ľåĩº": 3348,
      "çĻ»è®°": 3349,
      "çĶµåĬĽ": 3350,
      "çİ¯èĬĤ": 3351,
      "åıĺå¾Ĺ": 3352,
      "çº¢èī²": 3353,
      "æĭ¼": 3354,
      "ä¼ĺè´¨": 3355,
      "å±ķçİ°": 3356,
      "31": 3357,
      "ä¸Ģæĺ¯": 3358,
      "æıĲä¾ĽäºĨ": 3359,
      "èĪªç©º": 3360,
      "éħĴåºĹ": 3361,
      "æĬ¤çĲĨ": 3362,
      "èĳĹåĲį": 3363,
      "çĵ·": 3364,
      "çĶľ": 3365,
      "åĲĦçº§": 3366,
      "å¿Ĩ": 3367,
      "è½¬åŀĭ": 3368,
      "çĽĳæµĭ": 3369,
      "æ´ª": 3370,
      "äººåľ¨": 3371,
      "æĬĬæı¡": 3372,
      "éĺ²æİ§": 3373,
      "éģĵå¾·": 3374,
      "è¯Ħä¼°": 3375,
      "æ²Ĵ": 3376,
      "åŃ¦ä¼ļ": 3377,
      "æĽ´å¤ļçļĦ": 3378,
      "æĪĲéĥ½": 3379,
      "å¤ļæ¬¡": 3380,
      "æļĤ": 3381,
      "ä¸Ńåįİæ°ĳæĹı": 3382,
      "å®¾": 3383,
      "åı¯éĿł": 3384,
      "åĩī": 3385,
      "èĻİ": 3386,
      "åŀĥ": 3387,
      "éĻĲåĪ¶": 3388,
      "å®¤åĨħ": 3389,
      "åľ¾": 3390,
      "ä¸Ĭåįĩ": 3391,
      "æĽ´æĺ¯": 3392,
      "âĢĻ": 3393,
      "en": 3394,
      "çķħ": 3395,
      "èī°": 3396,
      "ä¸ĭéĿ¢": 3397,
      "ä¿Ħç½Ĺæĸ¯": 3398,
      "æ¸ħæ¥ļ": 3399,
      "ç¡ķ": 3400,
      "çļĦåĲĮæĹ¶": 3401,
      "èº«ä»½": 3402,
      "è·Ŀç¦»": 3403,
      "åŀĥåľ¾": 3404,
      "åıĳçĹħ": 3405,
      "éĩĮçļĦ": 3406,
      "ä¸ĵåĪ©": 3407,
      "æ¼ı": 3408,
      "è¯ģä¹¦": 3409,
      "çĻ¾å¹´": 3410,
      "è¿Ļæ¬¡": 3411,
      "å·ŀå¸Ĥ": 3412,
      "çļĦè¦ģæ±Ĥ": 3413,
      "è¿ģ": 3414,
      "æĶ¯æĴĳ": 3415,
      "çľł": 3416,
      "çĶµåĬ¨": 3417,
      "é«ĺçŃī": 3418,
      "ä¸ĵä¸ļçļĦ": 3419,
      "æĶ¹éĢł": 3420,
      "æģĲ": 3421,
      "çĸ¼": 3422,
      "è£ħé¥°": 3423,
      "å§Ķä¼ļ": 3424,
      "åĿ¡": 3425,
      "ä¸»ç®¡": 3426,
      "æĪĲåĪĨ": 3427,
      "ä¸Ĭè¿°": 3428,
      "åıįæĺł": 3429,
      "æ¶Īæģ¯": 3430,
      "åĽĽä¸ª": 3431,
      "æĺ¯ä¸į": 3432,
      "åŃĲå®«": 3433,
      "æĻĭ": 3434,
      "æŀĦæĪĲ": 3435,
      "åĩłä¹İ": 3436,
      "åľ¨ä¸ŃåĽ½": 3437,
      "æģĭ": 3438,
      "ä¼ļä¸Ĭ": 3439,
      "çļĦå¥½": 3440,
      "åĨ³çŃĸ": 3441,
      "å¼ķé¢Ĩ": 3442,
      "çļĦçĶŁæ´»": 3443,
      "é©»": 3444,
      "æĪĲçĨŁ": 3445,
      "æ²ŁéĢļ": 3446,
      "åĢ¾": 3447,
      "äºķ": 3448,
      "éĢĲæŃ¥": 3449,
      "éĻ¢æł¡": 3450,
      "çļĦä¸Ģç§į": 3451,
      "è¿ŀæİ¥": 3452,
      "è®°å½ķ": 3453,
      "ç¸": 3454,
      "å¤§åĪ©": 3455,
      "èħĲèļĢ": 3456,
      "çĸĨ": 3457,
      "è¯ķç®¡": 3458,
      "å»ºæĪĲ": 3459,
      "èį¯åĵģ": 3460,
      "è²Į": 3461,
      "åĲĦä¸ª": 3462,
      "è®©äºº": 3463,
      "æ°Ľ": 3464,
      "ç¼ºä¹ı": 3465,
      "é¢Ī": 3466,
      "æī¹åĩĨ": 3467,
      "åħ¬å®ī": 3468,
      "äºĮæĺ¯": 3469,
      "åľ°äº§": 3470,
      "æĮĩæłĩ": 3471,
      "è¡¨è¾¾": 3472,
      "èĥĨ": 3473,
      "å¿ĥçļĦ": 3474,
      "åĬŀçĲĨ": 3475,
      "éļ¾ä»¥": 3476,
      "ä¹ĭå¤ĸ": 3477,
      "æĢģåº¦": 3478,
      "å£¤": 3479,
      "å®¿": 3480,
      "å¤©æ´¥": 3481,
      "çľģçº§": 3482,
      "äº«åıĹ": 3483,
      "ä¸»è¦ģæĺ¯": 3484,
      "åĵ¡": 3485,
      "2000": 3486,
      "âĢĺ": 3487,
      "æľĪä»½": 3488,
      "å¾½": 3489,
      "ä»ĸäºº": 3490,
      "äºİæĺ¯": 3491,
      "ç¢İ": 3492,
      "åĽºå®ļ": 3493,
      "æĢ»ä½ĵ": 3494,
      "è¡°": 3495,
      "è°Ĳ": 3496,
      "éĹ²": 3497,
      "ä¸ŃåĽ½åħ±äº§åħļ": 3498,
      "çŁ³æ²¹": 3499,
      "å°º": 3500,
      "ç¼´": 3501,
      "å¼ķåıĳ": 3502,
      "çĤŃ": 3503,
      "é«ĺçº§": 3504,
      "æ¸ħæ´ģ": 3505,
      "ä½¿å¾Ĺ": 3506,
      "æĦŁåĪ°": 3507,
      "æ¡Īä»¶": 3508,
      "è°±": 3509,
      "ä¾Ŀæį®": 3510,
      "åħ«åŃĹ": 3511,
      "èµĸ": 3512,
      "è®¡ç®Ĺæľº": 3513,
      "é»ŀ": 3514,
      "çī¹å¾ģ": 3515,
      "ä¼ļæľī": 3516,
      "åįģäºĮ": 3517,
      "åľ¨äºİ": 3518,
      "æĤ£èĢħçļĦ": 3519,
      "45": 3520,
      "éĥ½ä¸į": 3521,
      "åľºæīĢ": 3522,
      "åħ±äº«": 3523,
      "åĪĽä½ľ": 3524,
      "è£ħç½®": 3525,
      "åĪĨæ³Į": 3526,
      "åĨĴ": 3527,
      "èĪį": 3528,
      "ä¸ĢæĹ¦": 3529,
      "çļĦäºĭæĥħ": 3530,
      "èĥĮæĻ¯": 3531,
      "åł´": 3532,
      "è´¢åĬ¡": 3533,
      "æĦıåĳ³": 3534,
      "ä¸Ģä¸ªäºº": 3535,
      "çī©çļĦ": 3536,
      "åĩºçīĪ": 3537,
      "æķĪçĽĬ": 3538,
      "ç¡ħ": 3539,
      "åĲİæĿ¥": 3540,
      "èĳ¡": 3541,
      "çĦĬ": 3542,
      "éĨĩ": 3543,
      "æĸĩç«ł": 3544,
      "36": 3545,
      "ä¹ĥ": 3546,
      "åº¦çļĦ": 3547,
      "åı¯æĺ¯": 3548,
      "å¿ĹæĦ¿": 3549,
      "å¹´ä»£": 3550,
      "å°¾": 3551,
      "åįģä¹Ŀ": 3552,
      "æĨ": 3553,
      "çĹħäºº": 3554,
      "åģļåĩº": 3555,
      "è¿Ŀæ³ķ": 3556,
      "åħ¬å¸ĥ": 3557,
      "åĬ²": 3558,
      "æ¹ĸåįĹ": 3559,
      "è¾£": 3560,
      "å¨±ä¹Ĳ": 3561,
      "åİŁæĸĻ": 3562,
      "å§Ĳ": 3563,
      "å¹²çĩ¥": 3564,
      "å¤§å¤ļæķ°": 3565,
      "è·ĥ": 3566,
      "åŃ¦çĶŁçļĦ": 3567,
      "æ»´": 3568,
      "åĭĻ": 3569,
      "å·¡": 3570,
      "å¤§éĥ¨åĪĨ": 3571,
      "åĳ¼åĲ¸": 3572,
      "æŃ»äº¡": 3573,
      "è¡¨æĺİ": 3574,
      "ãĢĭãĢĤ": 3575,
      "çĭĹ": 3576,
      "å¾Ĵ": 3577,
      "èµ¶": 3578,
      "æĦŁæĥħ": 3579,
      "åĲĪæł¼": 3580,
      "è®¾ç«ĭ": 3581,
      "ä»ĵ": 3582,
      "äººæ°ĳæĶ¿åºľ": 3583,
      "æľŁçļĦ": 3584,
      "åĵģç§į": 3585,
      "çĭ¬çī¹": 3586,
      "ä»ªåĻ¨": 3587,
      "çļĦåİŁåĽł": 3588,
      "è§Ĵèī²": 3589,
      "éĶ»": 3590,
      "çĪ±æĥħ": 3591,
      "èĤĥ": 3592,
      "éģĩåĪ°": 3593,
      "é¼»": 3594,
      "å°ıç»Ħ": 3595,
      "ä¸ĸçķĮæĿ¯": 3596,
      "å°½éĩı": 3597,
      "æ°£": 3598,
      "åĪĬ": 3599,
      "åĪ©æ¶¦": 3600,
      "300": 3601,
      "åĽ½æľī": 3602,
      "æīĢåľ¨": 3603,
      "åĬŀåħ¬å®¤": 3604,
      "å²©": 3605,
      "æľĢå¥½": 3606,
      "å¾Īå¤ļäºº": 3607,
      "åĬĽåº¦": 3608,
      "åĩłä¸ª": 3609,
      "å¿Ļ": 3610,
      "æĺ¾èĳĹ": 3611,
      "å¹³è¡¡": 3612,
      "éĢĨ": 3613,
      "åĲĮæł·": 3614,
      "æĬ±": 3615,
      "æīĢè°ĵ": 3616,
      "åĽĬ": 3617,
      "é©¬åħĭæĢĿ": 3618,
      "å°½ç®¡": 3619,
      "ä¸Ģå®¶": 3620,
      "è¿Ľåı£": 3621,
      "ç»ĺ": 3622,
      "çļĦä¸Ģä¸ª": 3623,
      "çļĦä¸į": 3624,
      "åĨ³èµĽ": 3625,
      "åıĳçĶµ": 3626,
      "åģ¶": 3627,
      "èģĮè´£": 3628,
      "è¯±": 3629,
      "ä¹Łå°±æĺ¯": 3630,
      "åĲ¯åĬ¨": 3631,
      "å¯¹å¤ĸ": 3632,
      "éĢĤå½ĵ": 3633,
      "è®ĵ": 3634,
      "ä¸Ģæµģ": 3635,
      "èĥ¸": 3636,
      "çĪ¸": 3637,
      "æ¼Ĩ": 3638,
      "è½¬åĮĸ": 3639,
      "éĤĢ": 3640,
      "ä»£çĲĨ": 3641,
      "æłĩå¿Ĺ": 3642,
      "ä¹Łè¦ģ": 3643,
      "æĶ¯éĥ¨": 3644,
      "æİ¨èįĲ": 3645,
      "éħ¯": 3646,
      "æł¡åĽŃ": 3647,
      "åħħæ»¡": 3648,
      "è§Ĥå¯Ł": 3649,
      "æ¶ĤæĸĻ": 3650,
      "å½¢åĬ¿": 3651,
      "å¿§": 3652,
      "åºĶæĢ¥": 3653,
      "æįŁå¤±": 3654,
      "åıĳè¡¨": 3655,
      "èħ¾": 3656,
      "è¯ģåĪ¸": 3657,
      "è°ĥèĬĤ": 3658,
      "çļĦæĸ¹æ³ķ": 3659,
      "æİĴæĶ¾": 3660,
      "2014": 3661,
      "åĨľæ°ĳ": 3662,
      "èĶ¬èıľ": 3663,
      "å¿Į": 3664,
      "æķĮ": 3665,
      "å¥¹çļĦ": 3666,
      "æ³Ħ": 3667,
      "åĴĮåĽ½": 3668,
      "åħļä¸Ńå¤®": 3669,
      "æŃ£æĺ¯": 3670,
      "æµģç¨ĭ": 3671,
      "åĿļåĨ³": 3672,
      "åįĵ": 3673,
      "èĲĦ": 3674,
      "çļĦæ°´": 3675,
      "ä»¿": 3676,
      "èĥľåĪ©": 3677,
      "æī°": 3678,
      "å¯¹æĸ¹": 3679,
      "ä¸īå¹´": 3680,
      "æ´»æĢ§": 3681,
      "é¦ĸæ¬¡": 3682,
      "æ°Ķä½ĵ": 3683,
      "å®Ŀå®Ŀ": 3684,
      "åĬŀåŃ¦": 3685,
      "èĿ": 3686,
      "å°ĸ": 3687,
      "ä¿¡å¿ĥ": 3688,
      "ä½©": 3689,
      "ä¸ĩäºº": 3690,
      "ä¸Ģè·¯": 3691,
      "ç®¡éģĵ": 3692,
      "åŁ¹èĤ²": 3693,
      "ç»´ä¿®": 3694,
      "ç¢±": 3695,
      "å¾Īå¤§çļĦ": 3696,
      "æĽ´å¥½çļĦ": 3697,
      "åħ¬åĽŃ": 3698,
      "éĽĨä½ĵ": 3699,
      "èı²": 3700,
      "å®Įæķ´": 3701,
      "æ¸ħæ´Ĺ": 3702,
      "è¡¥åħħ": 3703,
      "èĩ´åĬĽ": 3704,
      "å¦Ĥæŀľä½ł": 3705,
      "æĲº": 3706,
      "çłĤ": 3707,
      "æ±Ĺ": 3708,
      "æ²³åĮĹ": 3709,
      "çĽ¸åĲĮ": 3710,
      "ç¾İä¸½": 3711,
      "äº§æĿĥ": 3712,
      "ä¼¤å®³": 3713,
      "å´ĩ": 3714,
      "çľŁå®ŀ": 3715,
      "éĵ¸": 3716,
      "å¾Īå¥½çļĦ": 3717,
      "è®¨è®º": 3718,
      "æµĭéĩı": 3719,
      "çĥ¦": 3720,
      "å½¼": 3721,
      "åĬŁæķĪ": 3722,
      "å°±èĥ½": 3723,
      "æĢĿç»´": 3724,
      "ä½ĵåĪ¶": 3725,
      "åĶ¯ä¸Ģ": 3726,
      "æĸ°æĬĢæľ¯": 3727,
      "å¸¦çĿĢ": 3728,
      "æĵ¦": 3729,
      "çĽ¾": 3730,
      "çļĦæĬĢæľ¯": 3731,
      "æ¨£": 3732,
      "?âĢĿ": 3733,
      "é«ĺæ¸©": 3734,
      "å±Ĥæ¬¡": 3735,
      "æ¸łéģĵ": 3736,
      "æĻ¨": 3737,
      "åįĹäº¬": 3738,
      "è·Į": 3739,
      "æª": 3740,
      "äºĨä¸Ģä¸ª": 3741,
      "èµ·åĪ°": 3742,
      "éĻķ": 3743,
      "æłı": 3744,
      "çļĦçĥŃ": 3745,
      "æ¸Ĺ": 3746,
      "å®ĺæĸ¹": 3747,
      "æıĲåĪ°": 3748,
      "åľ¨ä¸Ģèµ·": 3749,
      "åĪ°åºķ": 3750,
      "æĤ²": 3751,
      "éĢĥ": 3752,
      "å¯¹è±¡": 3753,
      "åľ¨çº¿": 3754,
      "èĳ¡èĲĦ": 3755,
      "ä¿¡çĶ¨": 3756,
      "è¨Ń": 3757,
      "éĶģ": 3758,
      "ä¼ļè®¡": 3759,
      "åľŁå£¤": 3760,
      "å¾ŀ": 3761,
      "è¯ĬæĸŃ": 3762,
      "ä¸Ģèĩ´": 3763,
      "åį³åı¯": 3764,
      "åįĢ": 3765,
      "éĺĢ": 3766,
      "æĢ»æĺ¯": 3767,
      "çŃīå¥ĸ": 3768,
      "éĥģ": 3769,
      "è¾½": 3770,
      "è³ª": 3771,
      "ä»Ļ": 3772,
      "åĳĪçİ°": 3773,
      "æ¢¦è§ģ": 3774,
      "åħ»èĢģ": 3775,
      "è³ĩ": 3776,
      "çļĦåīį": 3777,
      "è¢ĭ": 3778,
      "ä½łä»¬": 3779,
      "ä¸¤ç§į": 3780,
      "æĻ®éģį": 3781,
      "ç¥¥": 3782,
      "çłĸ": 3783,
      "éĵº": 3784,
      "çī©çĲĨ": 3785,
      "çĻ¾åĪĨ": 3786,
      "å®ħ": 3787,
      "åħ¨çľģ": 3788,
      "æĹ¶çļĦ": 3789,
      "ä¹Łèĥ½": 3790,
      "åĪĽå»º": 3791,
      "åŃ¦ä½į": 3792,
      "éĥ½åľ¨": 3793,
      "æĦŁåıĹ": 3794,
      "è§Ħå¾ĭ": 3795,
      "èŀįèµĦ": 3796,
      "å¦Īå¦Ī": 3797,
      "è´·æ¬¾": 3798,
      "ç§Ĵ": 3799,
      "æĭħä»»": 3800,
      "æĭĴç»Ŀ": 3801,
      "çĸı": 3802,
      "å¿«ä¹Ĳ": 3803,
      "çģĮ": 3804,
      "åĲĪéĩĳ": 3805,
      "æĤŁ": 3806,
      "èĤª": 3807,
      "å®ļæľŁ": 3808,
      "ç²Ĺ": 3809,
      "ä¸ĵéĹ¨": 3810,
      "ç¡«": 3811,
      "èĦĤèĤª": 3812,
      "çļĦæĥħåĨµä¸ĭ": 3813,
      "éĩįçļĦ": 3814,
      "ä¼Ĺå¤ļ": 3815,
      "å½¹": 3816,
      "é«ĺè´¨éĩıåıĳå±ķ": 3817,
      "è¾ŀ": 3818,
      "è¯ļä¿¡": 3819,
      "çĤ¸": 3820,
      "åĪ¶éĢłä¸ļ": 3821,
      "çļĨ": 3822,
      "çłĶç©¶çĶŁ": 3823,
      "ä½ľä¸ļ": 3824,
      "ä¾ĿçĦ¶": 3825,
      "ä¸ĢåĲį": 3826,
      "éĥŃ": 3827,
      "æ£ĢéªĮ": 3828,
      "åıĳä½ľ": 3829,
      "æ»¡æĦı": 3830,
      "æĸ°èĥ½æºĲ": 3831,
      "å°±è¦ģ": 3832,
      "æĸ°åĨł": 3833,
      "ä¿¡æģ¯åĮĸ": 3834,
      "éħįå¥Ĺ": 3835,
      "åĩ¯": 3836,
      "å¯º": 3837,
      "ä¸Ĭä¸ĭ": 3838,
      "ç¬¬äºĶ": 3839,
      "ç¾İçļĦ": 3840,
      "é¢Ħè®¡": 3841,
      "äººå¤§": 3842,
      "æ©¡": 3843,
      "ä¸¦": 3844,
      "å¼ĺ": 3845,
      "çīµ": 3846,
      "éĺĶ": 3847,
      "åŃ¦åİĨ": 3848,
      "è¿ĺåı¯ä»¥": 3849,
      "åħ´è¶£": 3850,
      "éŁ©åĽ½": 3851,
      "å¯¸": 3852,
      "éĹ®é¢ĺçļĦ": 3853,
      "åľ¨è¿Ļ": 3854,
      "çºµ": 3855,
      "æľīåĪ©äºİ": 3856,
      "äººçī©": 3857,
      "æĥħåĨµä¸ĭ": 3858,
      "è§£éĩĬ": 3859,
      "æľīå¾Īå¤ļ": 3860,
      "çºł": 3861,
      "å®ļä½į": 3862,
      "å¹¶ä¸įæĺ¯": 3863,
      "æĻ¯åĮº": 3864,
      "æĸĩåŃ¦": 3865,
      "åºĶå¯¹": 3866,
      "æ»ĭ": 3867,
      "Ġ(": 3868,
      "æĮĸ": 3869,
      "éĥ¨ä½į": 3870,
      "è¯´éģĵ": 3871,
      "èĩ³ä»Ĭ": 3872,
      "å®¶çļĦ": 3873,
      "åī²": 3874,
      "åĨ»": 3875,
      "æī«": 3876,
      "ä¹ĭä¸Ń": 3877,
      "æĲľ": 3878,
      "é»ĳèī²": 3879,
      "èµĭ": 3880,
      "äºĭé¡¹": 3881,
      "ä¸ĵé¡¹": 3882,
      "æľĢè¿ĳ": 3883,
      "å°ıçļĦ": 3884,
      "æĪªèĩ³": 3885,
      "1000": 3886,
      "æ°¯": 3887,
      "ä¸Ļ": 3888,
      "æľĢä½³": 3889,
      "è¿Ī": 3890,
      "ä¸ĢæĿ¡": 3891,
      "æľīåı¯èĥ½": 3892,
      "åĪĨå¸ĥ": 3893,
      "éĢĤçĶ¨äºİ": 3894,
      "æ·»åĬł": 3895,
      "èĻķ": 3896,
      "æ°¸è¿ľ": 3897,
      "çĻ½çĻľé£İçļĦ": 3898,
      "éĤ®": 3899,
      "è¡Įä¸ļçļĦ": 3900,
      "å¾Īéļ¾": 3901,
      "ä»¥åīį": 3902,
      "å±¥è¡Į": 3903,
      "æ¬£": 3904,
      "ä¸Ģåı¥": 3905,
      "ä¿Ŀåģ¥": 3906,
      "èħ¿": 3907,
      "ç¼Ŀ": 3908,
      "äº¿ç¾İåħĥ": 3909,
      "çľ¼çĿ": 3910,
      "äººæ°ĳå¸ģ": 3911,
      "åİŁçĲĨ": 3912,
      "å¥³äºº": 3913,
      "éļľç¢į": 3914,
      "è¾ĸ": 3915,
      "éĿĴæĺ¥": 3916,
      "é¬": 3917,
      "èĥĢ": 3918,
      "åıĳèĤ²": 3919,
      "æĥľ": 3920,
      "çł´åĿı": 3921,
      "èĩªè§ī": 3922,
      "åĩĢåĮĸ": 3923,
      "è¸ı": 3924,
      "éĴĻ": 3925,
      "çħ®": 3926,
      "åĴĮè°Ĳ": 3927,
      "çĪ¶äº²": 3928,
      "æĿŃ": 3929,
      "è¡Ģæ¶²": 3930,
      "åĲĬ": 3931,
      "åģ¥åħ¨": 3932,
      "èĢĥæł¸": 3933,
      "ä¼łæī¿": 3934,
      "æ²Ī": 3935,
      "ä¼ĺçĤ¹": 3936,
      "ç¦»å¼Ģ": 3937,
      "çĶ·æĢ§": 3938,
      "çĶµè¯Ŀ": 3939,
      "é½¿": 3940,
      "éĵ¶å±ĳ": 3941,
      "åºĶçĶ¨äºİ": 3942,
      "äº©": 3943,
      "èĬĤçĽ®": 3944,
      "çļĦåİĨåı²": 3945,
      "å°Ŀ": 3946,
      "éĶ¦": 3947,
      "ç³»ç»ŁçļĦ": 3948,
      "ä¸ĬäºĨ": 3949,
      "è¦ģæ³¨æĦı": 3950,
      "éĵ¶å±ĳçĹħ": 3951,
      "æĹ¶åĪ»": 3952,
      "å¼Ĥå¸¸": 3953,
      "åĽ½å®¶çº§": 3954,
      "éĤ¦": 3955,
      "ä¸įç®¡": 3956,
      "åľ¨æŃ¤": 3957,
      "æ³ķåĽ½": 3958,
      "è»Ĭ": 3959,
      "æĦıæĢĿ": 3960,
      "è¯ĳ": 3961,
      "æ¶ĪåĮĸ": 3962,
      "æ¹ĸåĮĹ": 3963,
      "å¤Ħç½ļ": 3964,
      "éļıåĲİ": 3965,
      "åķĬ": 3966,
      "åĢ¡": 3967,
      "èĩªæ²»åĮº": 3968,
      "å®ĺç½ĳ": 3969,
      "ä¸Ńåħ±": 3970,
      "æĪĺäºī": 3971,
      "åŁĥ": 3972,
      "ãĢĭãĢĬ": 3973,
      "å¸¦é¢Ĩ": 3974,
      "å°±åĥı": 3975,
      "åĪĨç±»": 3976,
      "ç¾İæľ¯": 3977,
      "2013": 3978,
      "å¸ĤåľºçļĦ": 3979,
      "åįģå¹´": 3980,
      "åħħåĪĨåıĳæĮ¥": 3981,
      "å¹¼åĦ¿": 3982,
      "ç§įæ¤į": 3983,
      "å·¥åİĤ": 3984,
      "åĴĮç¤¾ä¼ļ": 3985,
      "å·¥èµĦ": 3986,
      "38": 3987,
      "ä¸įå¥½": 3988,
      "èħ°": 3989,
      "éĺ³åħī": 3990,
      "éĺ²æ²»": 3991,
      "ä¸įåĨį": 3992,
      "åĬłä¸Ĭ": 3993,
      "æŀĿ": 3994,
      "å¾Īå¥½": 3995,
      "æĺ¯ä¸ŃåĽ½": 3996,
      "æĦıåĳ³çĿĢ": 3997,
      "åĮĢ": 3998,
      "è§ĦåĪĻ": 3999,
      "åĽŀåºĶ": 4000,
      "å·¥åķĨ": 4001,
      "!âĢĿ": 4002,
      "é³": 4003,
      "è½¬åıĺ": 4004,
      "èĸª": 4005,
      "èĥ½éĩı": 4006,
      "ãĢĤãĢĬ": 4007,
      "æĹģ": 4008,
      "å¿į": 4009,
      "å¤±åİ»": 4010,
      "çĿĢåĬĽ": 4011,
      "èī¾": 4012,
      "æ¿Ģç´ł": 4013,
      "ç´¯è®¡": 4014,
      "æĺ¯çĶ±": 4015,
      "äºĳåįĹ": 4016,
      "éº¼": 4017,
      "çİ°æľī": 4018,
      "æ¼Ķåĳĺ": 4019,
      "ç«ĭåį³": 4020,
      "è¾°": 4021,
      "æ··åĲĪ": 4022,
      "é«ĺç«¯": 4023,
      "æĽ´ä¸º": 4024,
      "è¾ĥå¤§": 4025,
      "åĳ¨æľŁ": 4026,
      "åĮ»èį¯": 4027,
      "çĽĨ": 4028,
      "æľºåľº": 4029,
      "ä½ıæĪ¿": 4030,
      "åħįè´¹": 4031,
      "æ¯įäº²": 4032,
      "ä¼ĺèī¯": 4033,
      "å¼ķè¿Ľ": 4034,
      "æ·±åº¦": 4035,
      "èĢģäºº": 4036,
      "å®īåħ¨çĶŁäº§": 4037,
      "é¸Ł": 4038,
      "æłĳç«ĭ": 4039,
      "åħ¨ä¼ļ": 4040,
      "è¿ĺä¼ļ": 4041,
      "ç¢ĳ": 4042,
      "èĭ±è¯Ń": 4043,
      "æįŁå®³": 4044,
      "åħ±åĴĮåĽ½": 4045,
      "è¾ĥä¸º": 4046,
      "å¤©ä¸ĭ": 4047,
      "æµģåĬ¨": 4048,
      "éĥ¨ä»¶": 4049,
      "æµ·å¤ĸ": 4050,
      "èĩ´åĬĽäºİ": 4051,
      "èĩŃ": 4052,
      "å¥ı": 4053,
      "åŁºäºİ": 4054,
      "å¹³æĹ¶": 4055,
      "çļĦç²¾ç¥ŀ": 4056,
      "ç¾İå¥½": 4057,
      "33": 4058,
      "å§ľ": 4059,
      "åĻ¨çļĦ": 4060,
      "æ¯ķä¸ļçĶŁ": 4061,
      "çĻ½èī²": 4062,
      "èĩªä¿¡": 4063,
      "éĽ¾": 4064,
      "éĻµ": 4065,
      "æĭħå½ĵ": 4066,
      "åĪĿå¿ĥ": 4067,
      "è®¤åı¯": 4068,
      "è¡ĮçļĦ": 4069,
      "æĭĨ": 4070,
      "åĽ½åĨħå¤ĸ": 4071,
      "æľĢå¥½çļĦ": 4072,
      "çľ¼çĿĽ": 4073,
      "èĩ³å°ĳ": 4074,
      "å¤įåħ´": 4075,
      "%;": 4076,
      "åħ©": 4077,
      "çĤĴ": 4078,
      "å¤©çļĦ": 4079,
      "æĢª": 4080,
      "ç§ī": 4081,
      "ç¦»åŃĲ": 4082,
      "æĲ¬": 4083,
      "çªģçĦ¶": 4084,
      "è°¨": 4085,
      "æµĨ": 4086,
      "éĥ½è¦ģ": 4087,
      "äºļæ´²": 4088,
      "æıĴ": 4089,
      "åįĬå¹´": 4090,
      "å®£å¸ĥ": 4091,
      "æķ¸": 4092,
      "åĽŀæĶ¶": 4093,
      "è¨Ī": 4094,
      "èį£èªī": 4095,
      "èĬ¯": 4096,
      "çº½": 4097,
      "å·¥ä½ľäººåĳĺ": 4098,
      "è®¾å¤ĩçļĦ": 4099,
      "èĩ£": 4100,
      "åĪ¤æĸŃ": 4101,
      "å¦Ļ": 4102,
      "ä¸ŃåĽ½çļĦ": 4103,
      "åĽ½å¤ĸ": 4104,
      "å®ļçļĦ": 4105,
      "åĳ¨åĽ´": 4106,
      "ä¿¡åı·": 4107,
      "éªĹ": 4108,
      "åħģ": 4109,
      "åįģåĽĽ": 4110,
      "å°Ĩåľ¨": 4111,
      "å²ģçļĦ": 4112,
      "éĢļä¿¡": 4113,
      "æĭĵå±ķ": 4114,
      "æ¡Ĥ": 4115,
      "èĢĮä¸į": 4116,
      "å¤įåĲĪ": 4117,
      "ä¸ĩåĲ¨": 4118,
      "æł¼å±Ģ": 4119,
      "éŃı": 4120,
      "æ¢¯": 4121,
      "çµĲ": 4122,
      "æĹ©æľŁ": 4123,
      "è¾Ī": 4124,
      "çŁĽ": 4125,
      "è¡Ģåİĭ": 4126,
      "åįģåħ«": 4127,
      "ç¬¬ä¸Ģæ¬¡": 4128,
      "èµĶ": 4129,
      "åį°åĪ·": 4130,
      "éħįç½®": 4131,
      "å«Į": 4132,
      "å®¶åħ·": 4133,
      "åŃ¤": 4134,
      "éķ¿æĹ¶éĹ´": 4135,
      "æĭĽçĶŁ": 4136,
      "é¥±": 4137,
      "èĴĤ": 4138,
      "å·¥ä½ľä¸Ń": 4139,
      "æĤ¬": 4140,
      "å½°": 4141,
      "æľīåĵªäºĽ": 4142,
      "ä¹Łåľ¨": 4143,
      "åħ¨å¸Ĥ": 4144,
      "ç»ŁçŃ¹": 4145,
      "ç¨Ģ": 4146,
      "éĿ¢åĲĳ": 4147,
      "åŃ©åŃĲçļĦ": 4148,
      "æľŁå¾ħ": 4149,
      "åŁºåĽł": 4150,
      "åıĤèĢĥ": 4151,
      "æĪ¿åľ°äº§": 4152,
      "å¾Īå®¹æĺĵ": 4153,
      "åľºæ¯ĶèµĽ": 4154,
      "æĸĩåŃĹ": 4155,
      "éĺħè¯»": 4156,
      "æ¿Ģåħī": 4157,
      "èĲ¥ä¸ļ": 4158,
      "å¥ĳ": 4159,
      "åī©": 4160,
      "åħ¨åĬĽ": 4161,
      "èĤ¿çĺ¤": 4162,
      "æĽ¹": 4163,
      "2012": 4164,
      "mm": 4165,
      "çļĦæľįåĬ¡": 4166,
      "åı¯ä»¥åľ¨": 4167,
      "è®ºæĸĩ": 4168,
      "ä¸įçŁ¥éģĵ": 4169,
      "æĥĳ": 4170,
      "éĩĩè´Ń": 4171,
      "æįĲ": 4172,
      "è¯ķç®¡å©´åĦ¿": 4173,
      "å®¡æŁ¥": 4174,
      "èĩªåĬ¨åĮĸ": 4175,
      "ç»ıæµİåıĳå±ķ": 4176,
      "åıĸå¾ĹäºĨ": 4177,
      "è´¯å½»èĲ½å®ŀ": 4178,
      "çºªå¿µ": 4179,
      "ä½ĵä¼ļ": 4180,
      "æĿĥåĪ©": 4181,
      "å½ĵä¸Ń": 4182,
      "åĬłçĥŃ": 4183,
      "åįıåĲĮ": 4184,
      "åħ¬çĽĬ": 4185,
      "çºº": 4186,
      "åĲĲ": 4187,
      "æĹ¥èµ·": 4188,
      "é¢ĨåŁŁçļĦ": 4189,
      "å§»": 4190,
      "æĪĴ": 4191,
      "ï¿": 4192,
      "ç¡ķå£«": 4193,
      "åħ³å¿ĥ": 4194,
      "ä¹īåĬ¡": 4195,
      "çĶ·äºº": 4196,
      "çĸ²": 4197,
      "æİĺ": 4198,
      "æħĪ": 4199,
      "ä»¥ä¸º": 4200,
      "æıĲåīį": 4201,
      "é¡µ": 4202,
      "çĮ«": 4203,
      "çĥĪçļĦ": 4204,
      "èŁ": 4205,
      "ä½ľèĢħ": 4206,
      "åĩºå¸Ń": 4207,
      "å¯ĨåĪĩ": 4208,
      "ä¸įéĶĻ": 4209,
      "æ¦Ĥå¿µ": 4210,
      "æĺĨ": 4211,
      "ä¸Ģæ®µ": 4212,
      "å¾Īå¿«": 4213,
      "é©¬åħĭæĢĿä¸»ä¹ī": 4214,
      "æµģéĩı": 4215,
      "éĮ": 4216,
      "ä»ªå¼ı": 4217,
      "åı¸æ³ķ": 4218,
      "æ°ĶåĢĻ": 4219,
      "æľºéģĩ": 4220,
      "è§£åĨ³æĸ¹æ¡Ī": 4221,
      "åħ¸åŀĭ": 4222,
      "æľīä¸Ģä¸ª": 4223,
      "æķ´åĲĪ": 4224,
      "è¡¨æ¼Ķ": 4225,
      "åħļå»º": 4226,
      "åįģä¸ī": 4227,
      "ï¿½": 4228,
      "åħ¶æ¬¡": 4229,
      "åĨ²åĩ»": 4230,
      "åĲįåŃĹ": 4231,
      "----": 4232,
      "éĶĮ": 4233,
      "ç»ıåħ¸": 4234,
      "èľľ": 4235,
      "åŁºç¡Ģè®¾æĸ½": 4236,
      "ä¸Ģä»£": 4237,
      "åįļçī©": 4238,
      "æ°´æŀľ": 4239,
      "éĶ»çĤ¼": 4240,
      "éĻª": 4241,
      "ä¸Ńèį¯": 4242,
      "è®¸åı¯": 4243,
      "éĻķè¥¿": 4244,
      "æ·ĭ": 4245,
      "æħ¢æĢ§": 4246,
      "å¹¶æ²¡æľī": 4247,
      "èĳ£äºĭéķ¿": 4248,
      "è¤": 4249,
      "æ²Ĵæľī": 4250,
      "æıĲéĨĴ": 4251,
      "éĤ£ä¸ª": 4252,
      "æĬĢæľ¯çļĦ": 4253,
      "ä»ĸåľ¨": 4254,
      "æĥ³åĪ°": 4255,
      "ç¡®å®ŀ": 4256,
      "è®©æĪĳä»¬": 4257,
      "æŃ£è§Ħ": 4258,
      "æĪĲçļĦ": 4259,
      "ä¸ĸçķĮä¸Ĭ": 4260,
      "åĺ´": 4261,
      "å¤§æķ°æį®": 4262,
      "éĻ¢éķ¿": 4263,
      "ä½İäºİ": 4264,
      "äºĮåįģå¤§": 4265,
      "çļĦä¸»": 4266,
      "æ»¨": 4267,
      "å®īå¾½": 4268,
      "ãĢĭ(": 4269,
      "è§Ħå®ļçļĦ": 4270,
      "çŁĽçĽ¾": 4271,
      "è®Ĭ": 4272,
      "æĿ¥æºĲ": 4273,
      "æĦŁè°¢": 4274,
      "æĲŀ": 4275,
      "48": 4276,
      "æľīæķĪçļĦ": 4277,
      "é©¾é©¶": 4278,
      "å¦Ĥä¸ĭ": 4279,
      "æµ·æ´ĭ": 4280,
      "åĲĪéĢĤ": 4281,
      "åĬłçĽŁ": 4282,
      "æĢ»ç»ıçĲĨ": 4283,
      "37": 4284,
      "éĨ«": 4285,
      "å¤©æ°Ķ": 4286,
      "æĿ¡ä¾ĭ": 4287,
      "æĥħæĦŁ": 4288,
      "59": 4289,
      "åĩ¤": 4290,
      "éŃĶ": 4291,
      "èĦ¾": 4292,
      "ä»°": 4293,
      "æµħ": 4294,
      "éģĭ": 4295,
      "å¸ĪçĶŁ": 4296,
      "32": 4297,
      "æĺ¯æľī": 4298,
      "æľĪç»ı": 4299,
      "æ·Ģ": 4300,
      "æĶ¶çĽĬ": 4301,
      "æĹ©å·²": 4302,
      "è¯´çļĦ": 4303,
      "èº«ä¸Ĭ": 4304,
      "çī§": 4305,
      "åŁİä¹¡": 4306,
      "ç»´æĮģ": 4307,
      "ä¼Ļä¼´": 4308,
      "å¯Ħ": 4309,
      "èī²å½©": 4310,
      "å¾ĹåĪ°äºĨ": 4311,
      "ä¸Ģæī¹": 4312,
      "2010": 4313,
      "åĩłå¹´": 4314,
      "é»İ": 4315,
      "æ°´çļĦ": 4316,
      "è£ħä¿®": 4317,
      "å¸Ĥå§Ķ": 4318,
      "æĸ¹ä½į": 4319,
      "å¹¿è¥¿": 4320,
      "é¢ģ": 4321,
      "éĶĪéĴ¢": 4322,
      "åľ°ä¸ĭ": 4323,
      "åľ¨ä¸į": 4324,
      "äº§ä¸ļéĵ¾": 4325,
      "éģ¸": 4326,
      "æĪĳä»¬è¦ģ": 4327,
      "éĥ½èĥ½": 4328,
      "èĢĥå¯Ł": 4329,
      "åı¯è§ģ": 4330,
      "çļĦåŁºæľ¬": 4331,
      "åħ¶å®ĥ": 4332,
      "æıĲåĩºäºĨ": 4333,
      "æ¤Ĵ": 4334,
      "åīįçļĦ": 4335,
      "çĸ¼çĹĽ": 4336,
      "åıĳåĬ¨": 4337,
      "çĶŁåŃĺ": 4338,
      "æµ¸": 4339,
      "çī¹æĢ§": 4340,
      "ç°": 4341,
      "å¤ļæł·": 4342,
      "åħĦ": 4343,
      "åīĳ": 4344,
      "ä¹ĭè·¯": 4345,
      "æĳ¸": 4346,
      "ç¨į": 4347,
      "çº¿ä¸Ĭ": 4348,
      "ç»ıæµİç¤¾ä¼ļ": 4349,
      "å©ļå§»": 4350,
      "çļĦéľĢæ±Ĥ": 4351,
      "æĬ¥åĲį": 4352,
      "äº§éĩı": 4353,
      "çĽĪ": 4354,
      "æ±ģ": 4355,
      "æĸĹäºī": 4356,
      "æķĻèĤ²éĥ¨": 4357,
      "ä½ľé£İ": 4358,
      "ä¸ĭäºĨ": 4359,
      "ä¸īæĺ¯": 4360,
      "åŁİéķĩ": 4361,
      "çĩķ": 4362,
      "34": 4363,
      "çłĶç©¶éĻ¢": 4364,
      "å·®å¼Ĥ": 4365,
      "ä¸Ģä½į": 4366,
      "æĿ¥åĪ°": 4367,
      "çķª": 4368,
      "èĢĥçĶŁ": 4369,
      "èĲ¥éĢł": 4370,
      "è¯ķçĤ¹": 4371,
      "éŃĤ": 4372,
      "åģľæŃ¢": 4373,
      "å®ŀéĻħä¸Ĭ": 4374,
      "å°Ĩä¼ļ": 4375,
      "çĽĳæİ§": 4376,
      "æĳĩ": 4377,
      "ç¾½": 4378,
      "åĮºåĪ«": 4379,
      "æ¸¸å®¢": 4380,
      "éķ¿çļĦ": 4381,
      "2011": 4382,
      "èµ¢å¾Ĺ": 4383,
      "åľ°çļĦ": 4384,
      "åķı": 4385,
      "æµ¦": 4386,
      "åĽŃåĮº": 4387,
      "æĪ¿å±ĭ": 4388,
      "èĢķ": 4389,
      "æīįæĺ¯": 4390,
      "ç¦ıå»º": 4391,
      "å¤§éĩıçļĦ": 4392,
      "å£°éŁ³": 4393,
      "äººæķ°": 4394,
      "å¸¦åĬ¨": 4395,
      "ä¸Ĭæ¶¨": 4396,
      "çĲ´": 4397,
      "æ¢¦æĥ³": 4398,
      "åĪ¥": 4399,
      "å¸«": 4400,
      "ç»ĦåĲĪ": 4401,
      "ä½¿çĶ¨çļĦ": 4402,
      "åı°æ¹¾": 4403,
      "é¢¨": 4404,
      "ç²¾å½©": 4405,
      "åĽ½æ°ĳ": 4406,
      "è¿Ł": 4407,
      "å¾¡": 4408,
      "å¹¶åľ¨": 4409,
      "åĴĮåħ¶ä»ĸ": 4410,
      "åĽ½çļĦ": 4411,
      "æĸ°çĸĨ": 4412,
      "å·¨å¤§": 4413,
      "çĶ³æĬ¥": 4414,
      "æīĢæľīçļĦ": 4415,
      "è¬": 4416,
      "åĻª": 4417,
      "å¯¹æŃ¤": 4418,
      "å°ıåŃ¦": 4419,
      "æ·ĺ": 4420,
      "ar": 4421,
      "åĩºçİ°äºĨ": 4422,
      "æ´»åĬĽ": 4423,
      "çľģå§Ķ": 4424,
      "æĮĩæķ°": 4425,
      "sh": 4426,
      "åĤ¬": 4427,
      "åĬ¨ä½ľ": 4428,
      "éķĢ": 4429,
      "å¤ļåħĥ": 4430,
      "çĹħä¾ĭ": 4431,
      "åīįè¿Ľ": 4432,
      "è¥¿å®ī": 4433,
      "ä»Ķ": 4434,
      "åĩĮ": 4435,
      "55": 4436,
      "ç²¾åĩĨ": 4437,
      "çºªå¾ĭ": 4438,
      "æĶ»åĿļ": 4439,
      "æĢĢåŃķ": 4440,
      "æĦ¿æĦı": 4441,
      "çļĦçĶŁäº§": 4442,
      "ä¸Ģå¤©": 4443,
      "å¸Ĥæ°ĳ": 4444,
      "è®¤å®ļ": 4445,
      "è´«åĽ°": 4446,
      "å°Ĭéĩį": 4447,
      "èİ·åıĸ": 4448,
      "æĮ¯åħ´": 4449,
      "è¾ĥé«ĺ": 4450,
      "çĻ½çĻľé£İæĤ£èĢħ": 4451,
      "åłĨ": 4452,
      "æ¸¡": 4453,
      "èĴĻåı¤": 4454,
      "PP": 4455,
      "ä¿Ĭ": 4456,
      "åħĨ": 4457,
      "æĻ°": 4458,
      "æŁľ": 4459,
      "åĴĮåıĳå±ķ": 4460,
      "åĲ¹": 4461,
      "äººæīįåŁ¹åħ»": 4462,
      "æºª": 4463,
      "æĺ¯éĿŀå¸¸": 4464,
      "å®¶äºº": 4465,
      "ç¢°": 4466,
      "èĭ±éĽĦ": 4467,
      "èµ´": 4468,
      "èĩªè¡Į": 4469,
      "å¯Ĩå°ģ": 4470,
      "æ··åĩĿ": 4471,
      "åĲĮæ¯Ķå¢ŀéķ¿": 4472,
      "è§Ĥå¿µ": 4473,
      "åĬłéĢŁ": 4474,
      "çĸ«æĥħéĺ²æİ§": 4475,
      "å±ķè§Ī": 4476,
      "ç±»ä¼¼": 4477,
      "çĶŁæ´»çļĦ": 4478,
      "æ£®æŀĹ": 4479,
      "æĸ¤": 4480,
      "åĽŀåĪ°": 4481,
      "å¼·": 4482,
      "39": 4483,
      "å¥Ķ": 4484,
      "åĲĪæ³ķ": 4485,
      "ç½©": 4486,
      "æŁĲäºĽ": 4487,
      "ç´§å¼ł": 4488,
      "å½¢æĪĲäºĨ": 4489,
      "èĬ³": 4490,
      "æĿĥçĽĬ": 4491,
      "åīª": 4492,
      "åº·å¤į": 4493,
      "å¤§å¹ħ": 4494,
      "è´§å¸ģ": 4495,
      "éĴ»": 4496,
      "æĴŀ": 4497,
      "ä¸Ģå¸¦": 4498,
      "çĶµåķĨ": 4499,
      "å£³": 4500,
      "ä¸¥éĩįçļĦ": 4501,
      "åĨĽäºĭ": 4502,
      "ç¨¿": 4503,
      "å»·": 4504,
      "æīĵå¼Ģ": 4505,
      "æ£ī": 4506,
      "75": 4507,
      "è´µå·ŀ": 4508,
      "åĬłéĩį": 4509,
      "æķ´æĶ¹": 4510,
      "ç§ĳæĬĢåĪĽæĸ°": 4511,
      "ç®Ģç§°": 4512,
      "å®ĹæĹ¨": 4513,
      "éĦ": 4514,
      "æī§æ³ķ": 4515,
      "èĵĦ": 4516,
      "ä¸įéĶĪéĴ¢": 4517,
      "æľ¬äºº": 4518,
      "éĺ²æĬ¤": 4519,
      "åı¯æĮģç»Ń": 4520,
      "ä¸Ģç³»åĪĹ": 4521,
      "äººæ°ĳåħ±åĴĮåĽ½": 4522,
      "ä¸ĭåİ»": 4523,
      "çĪ·": 4524,
      "ç©ºè°ĥ": 4525,
      "åŁĭ": 4526,
      "åħļåĴĮ": 4527,
      "ç½ĳåıĭ": 4528,
      "åĩŃåĢŁ": 4529,
      "åĬ©äºİ": 4530,
      "çŁ¥è¯Ĩäº§æĿĥ": 4531,
      "äººåĬĽ": 4532,
      "çĽ¸ç»ĵåĲĪ": 4533,
      "éĶĻè¯¯": 4534,
      "çļĦä½¿çĶ¨": 4535,
      "åĲ¦åĪĻ": 4536,
      "èĤºçĤİ": 4537,
      "æ¡Ĩ": 4538,
      "ç«ŀäºīåĬĽ": 4539,
      "æ©¡èĥ¶": 4540,
      "æ°ĽåĽ´": 4541,
      "åģļæ³ķ": 4542,
      "å½¢æĢģ": 4543,
      "è°ĥçłĶ": 4544,
      "æĶ¹è¿Ľ": 4545,
      "æ¡Į": 4546,
      "è¿ĳæľŁ": 4547,
      "èº«è¾¹": 4548,
      "ç§¯ç´¯": 4549,
      "å»ºè®¾çļĦ": 4550,
      "ç¼ĵè§£": 4551,
      "ä¸ĭåįĪ": 4552,
      "çĶŁæĢģçİ¯å¢ĥ": 4553,
      "ä¸įçĶ¨": 4554,
      "å¹»": 4555,
      "åħ¬å¹³": 4556,
      "é©±åĬ¨": 4557,
      "å¥¥è¿Ĳ": 4558,
      "è®ºåĿĽ": 4559,
      "åĴĮå¹³": 4560,
      "åŃ¦èĢħ": 4561,
      "çĭĤ": 4562,
      "å¦¹": 4563,
      "äººç¾¤": 4564,
      "äººä¸º": 4565,
      "è¿ĳæĹ¥": 4566,
      "ä»ĬåĲİ": 4567,
      "ç»ĨèıĮ": 4568,
      "çļĦèĥ½åĬĽ": 4569,
      "æĿ¥äºĨ": 4570,
      "è¾ĵéĢģ": 4571,
      "ä¼ĳæģ¯": 4572,
      "ä¸Ńæľī": 4573,
      "æ¯ıä¸Ģä¸ª": 4574,
      "ä¸Ńåįİäººæ°ĳåħ±åĴĮåĽ½": 4575,
      "æĽ´æĸ°": 4576,
      "å¤§èµĽ": 4577,
      "åĽ½å®¶çļĦ": 4578,
      "æ³ķæ²»": 4579,
      "åĳ½è¿Ĳ": 4580,
      "å¯»æī¾": 4581,
      "éĿĴå°ĳå¹´": 4582,
      "èĬĤçº¦": 4583,
      "åŃ£åº¦": 4584,
      "ä»£è°¢": 4585,
      "æ°¢": 4586,
      "åĬ©åĬĽ": 4587,
      "è½¬ç§»": 4588,
      "èģĮä¸ļæķĻèĤ²": 4589,
      "å®ŀçİ°äºĨ": 4590,
      "å¸¦æĿ¥çļĦ": 4591,
      "æľīä»Ģä¹Ī": 4592,
      "éĢļéģĵ": 4593,
      "é£İæľº": 4594,
      "éĩĮéĿ¢": 4595,
      "ç©·": 4596,
      "äºĶå¹´": 4597,
      "çļĦå¤ĸ": 4598,
      "å§¿": 4599,
      "æĭħå¿ĥ": 4600,
      "è¾©": 4601,
      "æİ¨åĩº": 4602,
      "æĮ¤": 4603,
      "èģĬ": 4604,
      "åŃķå¦ĩ": 4605,
      "ä»¬çļĦ": 4606,
      "å¥½å¥½": 4607,
      "ä¹Łå°±": 4608,
      "æĢ§æł¼": 4609,
      "åĲĦä½į": 4610,
      "åħ¬ä¼Ĺ": 4611,
      "ä¸įäºĨ": 4612,
      "æ²ĥ": 4613,
      "è¿ĩæ»¤": 4614,
      "åĭĥ": 4615,
      "åį°åº¦": 4616,
      "çĻ¾å§ĵ": 4617,
      "èĢĮåľ¨": 4618,
      "æĺ¯åĽłä¸º": 4619,
      "æĻĴ": 4620,
      "æ°ĳéĹ´": 4621,
      "æĸ°æĹ¶ä»£ä¸ŃåĽ½çī¹èī²ç¤¾ä¼ļä¸»ä¹ī": 4622,
      "å¤±è´¥": 4623,
      "å±ħä½ı": 4624,
      "è¿ĺèĥ½": 4625,
      "ä¸ªæĢ§": 4626,
      "ä¸Ģçº§": 4627,
      "å¼Ģæĭĵ": 4628,
      "å¦ĩå¥³": 4629,
      "åīĬ": 4630,
      "çº·çº·": 4631,
      "çļĦé£Łçī©": 4632,
      "åĶ®åĲİ": 4633,
      "æľīæĹ¶": 4634,
      "èĬĿ": 4635,
      "æĬĳåĪ¶": 4636,
      "èµ«": 4637,
      "åĬ£": 4638,
      "é¢Ĺç²Ĵ": 4639,
      "èĤ©": 4640,
      "è¦ĭ": 4641,
      "åĦ¿åŃĲ": 4642,
      "å¤§åŃ¦çĶŁ": 4643,
      "çĸ«èĭĹ": 4644,
      "çļĦä¸Ń": 4645,
      "49": 4646,
      "åĮħåĲ«": 4647,
      "é¡Į": 4648,
      "å¸ħ": 4649,
      "å¼¯": 4650,
      "å¼Ĺ": 4651,
      "åŃĿ": 4652,
      "æĪĲæķĪ": 4653,
      "å°İ": 4654,
      "çĽ²": 4655,
      "æ±Łè¥¿": 4656,
      "65": 4657,
      "ä¸§": 4658,
      "å¤§çº¦": 4659,
      "çĽ´æĴŃ": 4660,
      "æĻļä¸Ĭ": 4661,
      "æģ°": 4662,
      "çĶµèĦĳ": 4663,
      "æĶ¶éĽĨ": 4664,
      "åĳ¨å¹´": 4665,
      "æ¼Ĥ": 4666,
      "ä¸ľåĮĹ": 4667,
      "æŃ¤åīį": 4668,
      "åľ°çĲĥ": 4669,
      "ä¿±ä¹Ĳ": 4670,
      "äºĨæĪĳ": 4671,
      "éĸĢ": 4672,
      "å¥īçĮ®": 4673,
      "æľįçĶ¨": 4674,
      "åħļçļĦäºĮåįģå¤§": 4675,
      "éĢĤçĶ¨": 4676,
      "èĤ¡ç¥¨": 4677,
      "æ¡ĳ": 4678,
      "åŀĤ": 4679,
      "2008": 4680,
      "å°ıç¼ĸ": 4681,
      "ä¸ĵç§ĳ": 4682,
      "åıįå¤į": 4683,
      "æµ©": 4684,
      "ä¿±ä¹Ĳéĥ¨": 4685,
      "æıŃ": 4686,
      "è¶³å¤Ł": 4687,
      "å¼ĺæī¬": 4688,
      "åĨ¶": 4689,
      "éĺŁçļĦ": 4690,
      "é«ĺä¸Ń": 4691,
      "æĪĺæĸĹ": 4692,
      "çĸ¹": 4693,
      "åļ": 4694,
      "èŀįåħ¥": 4695,
      "æĭĸ": 4696,
      "åĽ¾ä¹¦": 4697,
      "åĽŀçŃĶ": 4698,
      "éģĹä¼ł": 4699,
      "æĽ°": 4700,
      "ç½ĳä¸Ĭ": 4701,
      "çĿ¡çľł": 4702,
      "å®ļåĪ¶": 4703,
      "æĽ´å¥½åľ°": 4704,
      "ä¸įå¤Ł": 4705,
      "åı¯ä»¥è¯´": 4706,
      "æ¯ıä¸ªäºº": 4707,
      "åĩºåıĳ": 4708,
      "çĥŃæ°´": 4709,
      "çłĶç©¶æīĢ": 4710,
      "ç£·": 4711,
      "ä¼Ĳ": 4712,
      "åįļçī©é¦Ĩ": 4713,
      "çĶµæľº": 4714,
      "çĥĤ": 4715,
      "âĢķ": 4716,
      "åĲĪæĪĲ": 4717,
      "å¹²åĩĢ": 4718,
      "çļĦä¸ĵä¸ļ": 4719,
      "èģĶçĽŁ": 4720,
      "æŃ¤æĹ¶": 4721,
      "çĽ´åĪ°": 4722,
      "é¢Ħç®Ĺ": 4723,
      "çĥŃæĥħ": 4724,
      "æĺİçĻ½": 4725,
      "æİ¥ä¸ĭæĿ¥": 4726,
      "ä¼łæĦŁ": 4727,
      "å¤§ä¼Ĺ": 4728,
      "çĨ±": 4729,
      "çĻ¾åĪĨçĤ¹": 4730,
      "éªĳ": 4731,
      "åĤ³": 4732,
      "è¡ĵ": 4733,
      "æĹ¥åŃĲ": 4734,
      "æ¶Īæ¯Ĵ": 4735,
      "æ¶ĪéĻ¤": 4736,
      "æ¯ģ": 4737,
      "çİ©å®¶": 4738,
      "ä¸»ç®¡éĥ¨éĹ¨": 4739,
      "èµĽäºĭ": 4740,
      "åħ¬åĳĬ": 4741,
      "éłŃ": 4742,
      "å¯Ĩåº¦": 4743,
      "çıŃåŃĲ": 4744,
      "èĮĥåĽ´åĨħ": 4745,
      "åĪĨç¦»": 4746,
      "æĸĩçī©": 4747,
      "æīİå®ŀ": 4748,
      "åı¤ä»£": 4749,
      "ç§įç±»": 4750,
      "éĿĴå²Ľ": 4751,
      "è£ķ": 4752,
      "èİ²": 4753,
      "æĦĽ": 4754,
      "åıĺæĪĲ": 4755,
      "éī´å®ļ": 4756,
      "ä¸ŃåĽ½äººæ°ĳ": 4757,
      "æħ¢æħ¢": 4758,
      "çĲĨäºĭ": 4759,
      "æĬķèµĦèĢħ": 4760,
      "èĪªå¤©": 4761,
      "åł¡": 4762,
      "æįķ": 4763,
      "èĤ¡ä»½æľīéĻĲåħ¬åı¸": 4764,
      "èī²çļĦ": 4765,
      "å±±è¥¿": 4766,
      "èİ·å¾ĹäºĨ": 4767,
      "ä¸ªçĻ¾åĪĨçĤ¹": 4768,
      "åĨ·åį´": 4769,
      "çļĦåıĳçĶŁ": 4770,
      "åīįåĪĹ": 4771,
      "æĲı": 4772,
      "è¥¿æĸ¹": 4773,
      "éĥ¨éķ¿": 4774,
      "åĿĬ": 4775,
      "ä¸ŃåŃ¦": 4776,
      "æ»ļ": 4777,
      "ä¸īå¤§": 4778,
      "åĳ¨è¾¹": 4779,
      "ç´§å¯Ĩ": 4780,
      "çŃīçº§": 4781,
      "è¡Ĺéģĵ": 4782,
      "åĨħæ¶µ": 4783,
      "éĻĦè¿ĳ": 4784,
      "è¾ħåĬ©": 4785,
      "è®°å¿Ĩ": 4786,
      "ä¸ĬåįĪ": 4787,
      "åĮºçļĦ": 4788,
      "ä»¥ä¸ĬçļĦ": 4789,
      "äºĭåĬ¡": 4790,
      "åĩĿèģļ": 4791,
      "å©Ĩ": 4792,
      "æľŁæľĽ": 4793,
      "..": 4794,
      "è´¢äº§": 4795,
      "åħ»æ®ĸ": 4796,
      "ä¸ĢåĢĭ": 4797,
      "æŁ³": 4798,
      "äº§çĶŁçļĦ": 4799,
      "åŃŁ": 4800,
      "èªį": 4801,
      "çĶ¨éĢĶ": 4802,
      "99": 4803,
      "æĮĩæĮ¥": 4804,
      "åºŁæ°´": 4805,
      "æ¸ħæĻ°": 4806,
      "çļĦåİŁåĪĻ": 4807,
      "åĵªéĩĮ": 4808,
      "ç»Ŀå¯¹": 4809,
      "ç«ĭè¶³": 4810,
      "çļĦåŁºç¡Ģä¸Ĭ": 4811,
      "éĥ½åı¯ä»¥": 4812,
      "çĮĽ": 4813,
      "è¥¿éĥ¨": 4814,
      "æľºåĻ¨äºº": 4815,
      "äºĪä»¥": 4816,
      "éļĲæĤ£": 4817,
      "éĹª": 4818,
      "å¸¸è§ģçļĦ": 4819,
      "èµĦè´¨": 4820,
      "ä¾¿åĪ©": 4821,
      "èĪŀåı°": 4822,
      "åı¦ä¸Ģæĸ¹éĿ¢": 4823,
      "éĤ»": 4824,
      "ä¿¡å¿µ": 4825,
      "æĺ¯æľĢ": 4826,
      "è§ĤçĤ¹": 4827,
      "è¾¨": 4828,
      "åħ³èĬĤ": 4829,
      "éģµå®Ī": 4830,
      "å¤¹": 4831,
      "æħ°": 4832,
      "éľį": 4833,
      "åĿĩåĮĢ": 4834,
      "ä¹Łå¾Ī": 4835,
      "åħļç»Ħç»ĩ": 4836,
      "åħģè®¸": 4837,
      "è®©æĪĳ": 4838,
      "æĶ¯åĩº": 4839,
      "èĢĢ": 4840,
      "åīįæĻ¯": 4841,
      "æīĢå¾Ĺ": 4842,
      "å°ĳæķ°": 4843,
      "èµ°åĲĳ": 4844,
      "ä¿®å¤į": 4845,
      "ä½Ĩåľ¨": 4846,
      "æĶ¾å¼ĥ": 4847,
      "pp": 4848,
      "ä¸ļç»©": 4849,
      "çĨĬ": 4850,
      "æ··åĩĿåľŁ": 4851,
      "éĩĩè®¿": 4852,
      "çĽ¸åħ³çļĦ": 4853,
      "å¤Ħç½®": 4854,
      "ä¸ºæł¸å¿ĥ": 4855,
      "æł¡éķ¿": 4856,
      "ç½Ĳ": 4857,
      "å¯¼åĲĳ": 4858,
      "çº²": 4859,
      "æĥ³è±¡": 4860,
      "äººæ°ĳç¾¤ä¼Ĺ": 4861,
      "åį±æľº": 4862,
      "æĶ¹éĿ©å¼ĢæĶ¾": 4863,
      "ä¸īåĪĨ": 4864,
      "ä¸ĵçĶ¨": 4865,
      "åĽłçĤº": 4866,
      "è¾Ĳ": 4867,
      "éĿŀæ³ķ": 4868,
      "____": 4869,
      "çľĭçľĭ": 4870,
      "åıĤè§Ĥ": 4871,
      "æľīåħ³éĥ¨éĹ¨": 4872,
      "ãĢģâĢľ": 4873,
      "è§Ģ": 4874,
      "çī©åĵģ": 4875,
      "é«ĺäºİ": 4876,
      "æĺ¯å¯¹": 4877,
      "åĩºæĿ¥çļĦ": 4878,
      "æĸ°å¢ŀ": 4879,
      "æľĢæĸ°": 4880,
      "å¾ĭå¸Ī": 4881,
      "çĶ·åŃĲ": 4882,
      "èĤĸ": 4883,
      "ç¼Ĩ": 4884,
      "ç¶²": 4885,
      "æ¡Īä¾ĭ": 4886,
      "å°Ī": 4887,
      "éĽĨæĪĲ": 4888,
      "çī©èģĶç½ĳ": 4889,
      "å½»åºķ": 4890,
      "å½±çīĩ": 4891,
      "ä¸įå¾Ĺä¸į": 4892,
      "æįŁä¼¤": 4893,
      "çĽ¸åºĶçļĦ": 4894,
      "ä¹Łæ²¡æľī": 4895,
      "æ¯ıæ¬¡": 4896,
      "ä¹Łåı¯": 4897,
      "çĶµæ°Ķ": 4898,
      "æĢĿè·¯": 4899,
      "å¸¸å¸¸": 4900,
      "å®ª": 4901,
      "åıĳçļĦ": 4902,
      "åĽ¾çīĩ": 4903,
      "åī¯ä¸»ä»»": 4904,
      "å¯¹æīĭ": 4905,
      "åĴĸ": 4906,
      "åĴĮæľįåĬ¡": 4907,
      "å¿ħçĦ¶": 4908,
      "æĭĮ": 4909,
      "æ¡¶": 4910,
      "éĢļé£İ": 4911,
      "æĿŃå·ŀ": 4912,
      "çĦĬæİ¥": 4913,
      "2009": 4914,
      "ç¦ģæŃ¢": 4915,
      "de": 4916,
      "ä¸ĵé¢ĺ": 4917,
      "åıįå¯¹": 4918,
      "ä¹Ļçĥ¯": 4919,
      "è´¤": 4920,
      "æĮº": 4921,
      "æĪĸè®¸": 4922,
      "å¨ĺ": 4923,
      "ãĢį,": 4924,
      "åįıåĬ©": 4925,
      "ç¬¬ä¸Ģä¸ª": 4926,
      "åľ°çĲĨ": 4927,
      "ç¬¬åħŃ": 4928,
      "æĺ¨": 4929,
      "æĺĤ": 4930,
      "æĤ¦": 4931,
      "ç»Īäºİ": 4932,
      "æĹ¥çĽĬ": 4933,
      "å²Ń": 4934,
      "éĤĵ": 4935,
      "88": 4936,
      "åľ¨è¿Ļä¸ª": 4937,
      "åıĳè¡Į": 4938,
      "åĨħå¤ĸ": 4939,
      "è¯ĨåĪ«": 4940,
      "ä¼łç»ŁçļĦ": 4941,
      "æĮ¡": 4942,
      "è¿Ļå°±æĺ¯": 4943,
      "ç¡®è®¤": 4944,
      "æĢİæł·": 4945,
      "ç®Ń": 4946,
      "ä¹¦æ³ķ": 4947,
      "æłĳèĦĤ": 4948,
      "æĢ§è´¨": 4949,
      "400": 4950,
      "åİ¦": 4951,
      "å¯ĵ": 4952,
      "éķ¿æ±Ł": 4953,
      "èĦ±è´«": 4954,
      "åıĳè¨Ģ": 4955,
      "éĢıæĺİ": 4956,
      "æľīå®³": 4957,
      "çĶ¨èį¯": 4958,
      "åĿª": 4959,
      "å·¨å¤§çļĦ": 4960,
      "æĹłè®ºæĺ¯": 4961,
      "æµ´": 4962,
      "éĴ¢éĵģ": 4963,
      "è¯¾åłĤ": 4964,
      "çĥĺ": 4965,
      "2023": 4966,
      "èĪĴéĢĤ": 4967,
      "ç²¾åº¦": 4968,
      "æµĵåº¦": 4969,
      "ä¸¤äºº": 4970,
      "å¤§å°ı": 4971,
      "ä¼ļåĳĺ": 4972,
      "åĬŁçİĩ": 4973,
      "èĤ¡ä¸ľ": 4974,
      "è¼ĥ": 4975,
      "æķĻç»ĥ": 4976,
      "ä½ĵåĨħ": 4977,
      "ä¸Ī": 4978,
      "çļĦè§Ħå®ļ": 4979,
      "è´º": 4980,
      "çļĦæķĪæŀľ": 4981,
      "æĽ´é«ĺ": 4982,
      "çħ§çīĩ": 4983,
      "çĨŁæĤī": 4984,
      "ä¸¤å¹´": 4985,
      "ä»¥åħį": 4986,
      "çĪ±çļĦ": 4987,
      "æķħéļľ": 4988,
      "æĶ¿åįı": 4989,
      "åĩıè½»": 4990,
      "ç«ŀèµĽ": 4991,
      "åĬĽåĴĮ": 4992,
      "åĸ®": 4993,
      "åĪĽæĦı": 4994,
      "äººæ°ĳæ³ķéĻ¢": 4995,
      "ç²®é£Ł": 4996,
      "åįľ": 4997,
      "åıĳè¾¾": 4998,
      "éŀĭ": 4999,
      "ç«Ļåľ¨": 5000,
      "è¿Ļä¹Łæĺ¯": 5001,
      "æĥ³æ³ķ": 5002,
      "åįłåľ°": 5003,
      "é¸£": 5004,
      "åħ±æľī": 5005,
      "ä¼ĺåħĪ": 5006,
      "å®ĥæĺ¯": 5007,
      "èī³": 5008,
      "æŀª": 5009,
      "è¿ĽçĲĥ": 5010,
      "åİ¨": 5011,
      "åħļåı²": 5012,
      "ä¸ŃåĮ»èį¯": 5013,
      "åĮĹäº¬å¸Ĥ": 5014,
      "çļĦåħ³éĶ®": 5015,
      "ç¥ĸåĽ½": 5016,
      "ç§°åı·": 5017,
      "è§£æĶ¾": 5018,
      "å¢ĵ": 5019,
      "åľºæĻ¯": 5020,
      "è§Ĩè§ī": 5021,
      "æĸ°æĹ¶ä»£ä¸ŃåĽ½çī¹èī²ç¤¾ä¼ļä¸»ä¹īæĢĿæĥ³": 5022,
      "å°±åľ¨": 5023,
      "æ¯ħ": 5024,
      "è¢Ń": 5025,
      "åĩºåİ»": 5026,
      "çĶ±æŃ¤": 5027,
      "å·¢": 5028,
      "æĸ¹éĴĪ": 5029,
      "æ°ĳçĶŁ": 5030,
      "èĥģ": 5031,
      "çĶµåĻ¨": 5032,
      "è¿Ŀåıį": 5033,
      "æĺ¥èĬĤ": 5034,
      "éĩįéĩı": 5035,
      "46": 5036,
      "åĩºåı°": 5037,
      "èµĶåģ¿": 5038,
      "å¼ķèµ·çļĦ": 5039,
      "åĮ¹": 5040,
      "èµļ": 5041,
      "åģ·": 5042,
      "èģļçĦ¦": 5043,
      "åī¯ä¹¦è®°": 5044,
      "çµ¦": 5045,
      "éħ¶": 5046,
      "å¥ĸåĬ±": 5047,
      "æĸĩåĮĸçļĦ": 5048,
      "éĶ¡": 5049,
      "ä¹Łè®¸": 5050,
      "ä¸Ģæĸ¹éĿ¢": 5051,
      "éĢłåŀĭ": 5052,
      "é¡¹çĽ®çļĦ": 5053,
      "å®¶éĩĮ": 5054,
      "æľįè£ħ": 5055,
      "å°±æľī": 5056,
      "å·¥ç¨ĭå¸Ī": 5057,
      "ä¾ĿéĿł": 5058,
      "å·©": 5059,
      "æķ°åŃ¦": 5060,
      "çĶŁèĤ²": 5061,
      "è¦ģæľī": 5062,
      "æ¸©æļĸ": 5063,
      "çĶ¨äºº": 5064,
      "å¯Įæľī": 5065,
      "è®²è§£": 5066,
      "ä¸ºå®¢æĪ·": 5067,
      "èĭ¯": 5068,
      "çŃĭ": 5069,
      "å¾®ä¿¡": 5070,
      "åīĩ": 5071,
      "ä½ıå®ħ": 5072,
      "æ¯ķç«Ł": 5073,
      "é»Ħéĩĳ": 5074,
      "çľĭæĿ¥": 5075,
      "è°Ĭ": 5076,
      "é¤Ĳé¥®": 5077,
      "çĶ¨æ°´": 5078,
      "åĲĮæĦı": 5079,
      "é¡¾å®¢": 5080,
      "æĬĵä½ı": 5081,
      "çħĮ": 5082,
      "æĻ¯è§Ĥ": 5083,
      "å½±è§Ĩ": 5084,
      "åį°è±¡": 5085,
      "æĢĴ": 5086,
      "éģĶ": 5087,
      "äº§åĵģè´¨éĩı": 5088,
      "æ±¡æ°´å¤ĦçĲĨ": 5089,
      "çĶ¨æĿ¥": 5090,
      "æİ¥è¿ĳ": 5091,
      "çļĦä¸ĢäºĽ": 5092,
      "çº¿è·¯": 5093,
      "å°½å¿«": 5094,
      "å®¡è®¡": 5095,
      "æµ·åįĹ": 5096,
      "è¾Ĳå°Ħ": 5097,
      "æŁ´": 5098,
      "ch": 5099,
      "éĴ¢ç®¡": 5100,
      "çŁ©": 5101,
      "åıī": 5102,
      "åĲįåįķ": 5103,
      "æĺ¯ä¸ª": 5104,
      "è¾ĥä½İ": 5105,
      "åİĭç¼©": 5106,
      "å¥³åĦ¿": 5107,
      "åİĮ": 5108,
      "éĭ": 5109,
      "çļĦä¸ŃåĽ½": 5110,
      "è¦ı": 5111,
      "çļĦç®¡çĲĨ": 5112,
      "èĲ¬": 5113,
      "åģļäºĨ": 5114,
      "åł±": 5115,
      "çĶµæºĲ": 5116,
      "çļĩå¸Ŀ": 5117,
      "èĢ¶": 5118,
      "çļĦçİ¯å¢ĥ": 5119,
      "çĹķ": 5120,
      "ç¼ĸåĪ¶": 5121,
      "å±Ģéĥ¨": 5122,
      "ä¸įæĺĵ": 5123,
      "ä»ĸåĢĳ": 5124,
      "å¿ĥéĩĮ": 5125,
      "çĹħçļĦ": 5126,
      "éĽ¶åĶ®": 5127,
      "æ°´åĪ©": 5128,
      "èľĤ": 5129,
      "èº«ä½ĵåģ¥åº·": 5130,
      "ä¸įä½Ĩ": 5131,
      "é¬¼": 5132,
      "é¡ŀ": 5133,
      "å¸¶": 5134,
      "èµł": 5135,
      "ä¸ĬéĿ¢": 5136,
      "æ³ª": 5137,
      "åŃ©åŃĲä»¬": 5138,
      "èį£èİ·": 5139,
      "ç¾¤ä½ĵ": 5140,
      "ä¿¡ä»»": 5141,
      "æľīåĬĽ": 5142,
      "æĳĺ": 5143,
      "ä¼ļçļĦ": 5144,
      "åĪĻæĺ¯": 5145,
      "éĬ": 5146,
      "åłª": 5147,
      "è«ĭ": 5148,
      "æĪĳä»¬åľ¨": 5149,
      "çº³åħ¥": 5150,
      "å·¥äºº": 5151,
      "èµ·éĩį": 5152,
      "å¼ºå¤§": 5153,
      "è¸ª": 5154,
      "è·¯çº¿": 5155,
      "åĮ»å¸Ī": 5156,
      "åĵ²åŃ¦": 5157,
      "åį¢": 5158,
      "èµ¤": 5159,
      "å¾Īæľī": 5160,
      "58": 5161,
      "åħļæĶ¯éĥ¨": 5162,
      "ä¾Ŀæīĺ": 5163,
      "æ¿Ģåıĳ": 5164,
      "åĬ¨æĢģ": 5165,
      "çļĦå®īåħ¨": 5166,
      "éħ±": 5167,
      "å¸ĪèĮĥ": 5168,
      "åĲįç§°": 5169,
      "åīįå¾Ģ": 5170,
      "èĥº": 5171,
      "æ¢Ŀ": 5172,
      "ç¡®è¯Ĭ": 5173,
      "æľµ": 5174,
      "çĬ¹": 5175,
      "æıĲé«ĺäºĨ": 5176,
      "è´¢å¯Į": 5177,
      "è¿Ľç¨ĭ": 5178,
      "è¾½å®ģ": 5179,
      "é«ĺèĢĥ": 5180,
      "ä¼ĳéĹ²": 5181,
      "æĽ´æį¢": 5182,
      "âĹ": 5183,
      "æīĢéľĢ": 5184,
      "çŃĸçķ¥": 5185,
      "åİļçļĦ": 5186,
      "çļĦè¿ĩç¨ĭä¸Ń": 5187,
      "é¼ł": 5188,
      "æĸ°åĮº": 5189,
      "çģµæ´»": 5190,
      "çĴ°": 5191,
      "æľīåĬ©äºİ": 5192,
      "ED": 5193,
      "éĢīçĶ¨": 5194,
      "ç¯Ģ": 5195,
      "äºĴåĬ¨": 5196,
      "å¹´åºķ": 5197,
      "ç¦ģåĮº": 5198,
      "åľ°éĿ¢": 5199,
      "æ¶ĪèĢĹ": 5200,
      "æľĢä½İ": 5201,
      "åĩºè¡Ģ": 5202,
      "æĶ¶è´¹": 5203,
      "æľ´": 5204,
      "ä¸įçŁ¥": 5205,
      "ç·ļ": 5206,
      "åĭŁ": 5207,
      "çĽĳçĿ£ç®¡çĲĨ": 5208,
      "åºŁæ°Ķ": 5209,
      "å±Ī": 5210,
      "å¤ļå¹´çļĦ": 5211,
      "å¥³åŃĲ": 5212,
      "åłµ": 5213,
      "çļĦåĨħå®¹": 5214,
      "çĹĽèĭ¦": 5215,
      "çļĦå¸Ĥåľº": 5216,
      "çī¢è®°": 5217,
      "è¿Ľå±ķ": 5218,
      "ä¸īè§Ĵ": 5219,
      "å¼ĢåĲ¯": 5220,
      "æº«": 5221,
      "ä¹Ķ": 5222,
      "åħ¨èº«": 5223,
      "åĲĪçī©": 5224,
      "æĪĸæĺ¯": 5225,
      "éĻ¶çĵ·": 5226,
      "æĽ´å¤§": 5227,
      "è®¼": 5228,
      "or": 5229,
      "çŃīåľ°": 5230,
      "äº§ä¸ļåıĳå±ķ": 5231,
      "åĪĨéħį": 5232,
      "æĤ¨çļĦ": 5233,
      "èĺ": 5234,
      "ä¸Ģåľº": 5235,
      "ä¼ļåľ¨": 5236,
      "æĬĵå¥½": 5237,
      "é¢ĩ": 5238,
      "ä»ĸè¯´": 5239,
      "å¤ļå®¶": 5240,
      "åĽ½å®¶åĴĮ": 5241,
      "æķ¦": 5242,
      "æĿ±": 5243,
      "è½»æĿ¾": 5244,
      "æĪĲå¹´": 5245,
      "åįĥä¸ĩ": 5246,
      "æİĪæĿĥ": 5247,
      "ä¸ľæĸ¹": 5248,
      "å·®è·Ŀ": 5249,
      "è¿ĩåº¦": 5250,
      "çĸ¾çĹħçļĦ": 5251,
      "åĲĦèĩª": 5252,
      "ç»´åº¦": 5253,
      "èĽĭçĻ½è´¨": 5254,
      "æľºåºĬ": 5255,
      "è¿ĺåľ¨": 5256,
      "é¹ı": 5257,
      "èį¡": 5258,
      "åģļçļĦ": 5259,
      "å°Ĩåħ¶": 5260,
      "æĺ¯ä»¥": 5261,
      "æ£ĭ": 5262,
      "åľ°åĮºçļĦ": 5263,
      "èĮħ": 5264,
      "æ³³": 5265,
      "çĤİçĹĩ": 5266,
      "å°ºå¯¸": 5267,
      "åĪĳäºĭ": 5268,
      "éĩĬæĶ¾": 5269,
      "è¿ĩäºİ": 5270,
      "æĽ´æľī": 5271,
      "æī¶è´«": 5272,
      "ä¸Ģçº¿": 5273,
      "å»ºç«ĭäºĨ": 5274,
      "æķ´çĲĨ": 5275,
      "æĪĳæł¡": 5276,
      "èĲĿ": 5277,
      "è¿ĲåĬ¨åĳĺ": 5278,
      "ç»ĵå©ļ": 5279,
      "çļĦçłĶç©¶": 5280,
      "ä¸ĵæ³¨": 5281,
      "å®ĹæķĻ": 5282,
      "å¹¶éĿŀ": 5283,
      "çĶŁäº§çļĦ": 5284,
      "ç§ĺä¹¦": 5285,
      "é¢ĸ": 5286,
      "ä¾Ľç»Ļ": 5287,
      "ä¸įéľĢè¦ģ": 5288,
      "çµ±": 5289,
      "æ£Ģå¯Ł": 5290,
      "è¯ŀ": 5291,
      "ä¸¾æİª": 5292,
      "ä¾¯": 5293,
      "å®ŀçĶ¨": 5294,
      "çĽĴ": 5295,
      "æķĪåºĶ": 5296,
      "ä¸Ģä»½": 5297,
      "éĺ²èĮĥ": 5298,
      "éļ¾åº¦": 5299,
      "åĪ°çļĦ": 5300,
      "æ¿ĢåĬ±": 5301,
      "åį§": 5302,
      "è¯īè®¼": 5303,
      "æĤł": 5304,
      "éĹ´çļĦ": 5305,
      "åķ¡": 5306,
      "æ²¦": 5307,
      "èĢĮä¸įæĺ¯": 5308,
      "èµģ": 5309,
      "çľŁçĲĨ": 5310,
      "æĿĲæĸĻçļĦ": 5311,
      "æĻºèĥ½åĮĸ": 5312,
      "ç³ĸå°¿": 5313,
      "éĺ´éģĵ": 5314,
      "çĶ¨åĵģ": 5315,
      "æĺ¯ä¸Ģå®¶": 5316,
      "åİĺ": 5317,
      "ç§Łèµģ": 5318,
      "æĿĳæ°ĳ": 5319,
      "æī¿åĮħ": 5320,
      "æĬĽ": 5321,
      "æĦıå¤§åĪ©": 5322,
      "æĦıå¤ĸ": 5323,
      "éĤĢè¯·": 5324,
      "å¼Ħ": 5325,
      "æĸ°åħ´": 5326,
      "é«ĺåİĭ": 5327,
      "76": 5328,
      "çŃ¾è®¢": 5329,
      "å½ķåıĸ": 5330,
      "æĩĪ": 5331,
      "ç¸½": 5332,
      "æĪĲäºº": 5333,
      "æĶ¾åħ¥": 5334,
      "çŃĽ": 5335,
      "çº³ç¨İ": 5336,
      "å¤§æ°Ķ": 5337,
      "äºŃ": 5338,
      "ä¹łè¿ĳå¹³æĸ°æĹ¶ä»£ä¸ŃåĽ½çī¹èī²ç¤¾ä¼ļä¸»ä¹īæĢĿæĥ³": 5339,
      "éĺ²çģ«": 5340,
      "ç©Ĩ": 5341,
      "èĢģå¹´äºº": 5342,
      "åľ¨è¿ĻéĩĮ": 5343,
      "åĲĮåŃ¦ä»¬": 5344,
      "ä¸Ģä½ĵåĮĸ": 5345,
      "æĢ»ç»Ł": 5346,
      "çļĦè®¾è®¡": 5347,
      "åŃĲå¥³": 5348,
      "å½¼æŃ¤": 5349,
      "æĭįæĳĦ": 5350,
      "ç¼ĸè¾ĳ": 5351,
      "æļĳ": 5352,
      "æĴ¤": 5353,
      "æ°®": 5354,
      "è¢«åĳĬ": 5355,
      "éĢĶå¾Ħ": 5356,
      "çĪ±åĽ½": 5357,
      "èª¿": 5358,
      "æ¶²ä½ĵ": 5359,
      "é«ĺè¾¾": 5360,
      "å¤«å¦»": 5361,
      "æ¶¯": 5362,
      "åħ¨æĸ¹ä½į": 5363,
      "56": 5364,
      "å®¢è§Ĥ": 5365,
      "éĢĢä¼ĳ": 5366,
      "å»¶éķ¿": 5367,
      "ä¸ľåįĹ": 5368,
      "æĸĩèīº": 5369,
      "é¢Ħæµĭ": 5370,
      "çļĦçī¹çĤ¹": 5371,
      "äºĮçº§": 5372,
      "åıĺéĿ©": 5373,
      "åı¯èĥ½æĺ¯": 5374,
      "å¨ģèĥģ": 5375,
      "åĨ¬åŃ£": 5376,
      "æĽ¸": 5377,
      "å¦Ĩ": 5378,
      "åĵŃ": 5379,
      "éľ¸": 5380,
      "åºĻ": 5381,
      "ä¼Łå¤§å¤įåħ´": 5382,
      "éļıæĹ¶": 5383,
      "æŃ£ç¡®çļĦ": 5384,
      "æľªæĿ¥çļĦ": 5385,
      "å¢ŀåĢ¼": 5386,
      "æĶ¶èİ·": 5387,
      "éŃħ": 5388,
      "éģ¥": 5389,
      "èĩ³äºİ": 5390,
      "è´§çī©": 5391,
      "ä¸Ģä¸ªæĸ°çļĦ": 5392,
      "è§Ħæł¼": 5393,
      "å¹¿ä¸ľçľģ": 5394,
      "è¿ĩæķı": 5395,
      "æ¸´": 5396,
      "åİī": 5397,
      "ä»·åĢ¼è§Ĥ": 5398,
      "om": 5399,
      "æĹłäºº": 5400,
      "äºĭå®ŀä¸Ĭ": 5401,
      "åĴĸåķ¡": 5402,
      "ç¾İè§Ĥ": 5403,
      "èĤ¢": 5404,
      "åľ°è´¨": 5405,
      "ä»²": 5406,
      "è¦ĸ": 5407,
      "çĥ¤": 5408,
      "ä¸įå¦Ĥ": 5409,
      "è¦ģç´ł": 5410,
      "éĶĲ": 5411,
      "åıĳæĺİ": 5412,
      "è´¾": 5413,
      "å¯¼æ¼Ķ": 5414,
      "æĵħ": 5415,
      "å±ĢéĿ¢": 5416,
      "æī¿è¯º": 5417,
      "ä¸įå¿ĺ": 5418,
      "ä¼łæĦŁåĻ¨": 5419,
      "ä¼ĺæĥł": 5420,
      "çİĽ": 5421,
      "ç²¾åĵģ": 5422,
      "çļĦåĬĽéĩı": 5423,
      "è£¡": 5424,
      "åĳ³éģĵ": 5425,
      "éĺ²æ°´": 5426,
      "ç»ĨèĬĤ": 5427,
      "é¥¼": 5428,
      "æľīåºı": 5429,
      "è¡£æľį": 5430,
      "åĲįä¸º": 5431,
      "ç¨İåĬ¡": 5432,
      "åįģäºĶ": 5433,
      "æ¼Ķåĩº": 5434,
      "é£İæĻ¯": 5435,
      "95": 5436,
      "è¥¿çıŃ": 5437,
      "éŁ§": 5438,
      "al": 5439,
      "é¤Ĭ": 5440,
      "ä¸ĺ": 5441,
      "æĻĤéĸĵ": 5442,
      "åĽ¢ä½ĵ": 5443,
      "è¥¿çıŃçīĻ": 5444,
      "äººæĸĩ": 5445,
      "çļĦè´¨éĩı": 5446,
      "BA": 5447,
      "å·²æĪĲä¸º": 5448,
      "åĲįçļĦ": 5449,
      "çģ¾å®³": 5450,
      "ä¿Ŀåħ»": 5451,
      "å®¡æī¹": 5452,
      "æĸľ": 5453,
      "äººå·¥æĻºèĥ½": 5454,
      "æ°´æ³¥": 5455,
      "æĺİæĺŁ": 5456,
      "ä¹ĭä¸ĭ": 5457,
      "ä»İä¸¥": 5458,
      "æ¬ł": 5459,
      "è©²": 5460,
      "çĽĳå¯Ł": 5461,
      "æłª": 5462,
      "äºĭä¸ļåįķä½į": 5463,
      "ç§īæī¿": 5464,
      "çººç»ĩ": 5465,
      "æĹ¥çļĦ": 5466,
      "å¢ŀéĢŁ": 5467,
      "è¿Ļä½į": 5468,
      "æł½": 5469,
      "ä¿±": 5470,
      "åħļå§Ķä¹¦è®°": 5471,
      "å®¡æł¸": 5472,
      "æķ°åŃĹåĮĸ": 5473,
      "æµģè¡Į": 5474,
      "èµ·äºĨ": 5475,
      "è§£çŃĶ": 5476,
      "47": 5477,
      "85": 5478,
      "å¼¥": 5479,
      "å¸¸è§Ħ": 5480,
      "å¼ºå¤§çļĦ": 5481,
      "éĽ¢": 5482,
      "èĤĮèĤī": 5483,
      "å¤ļåĲĥ": 5484,
      "å¦»åŃĲ": 5485,
      "èįĴ": 5486,
      "è·µè¡Į": 5487,
      "å¹½": 5488,
      "éĿ¢åīį": 5489,
      "æķıæĦŁ": 5490,
      "æĭ³": 5491,
      "æ´»åĬ¨çļĦ": 5492,
      "éĩĳé¢Ŀ": 5493,
      "éĢĻåĢĭ": 5494,
      "åħĦå¼Ł": 5495,
      "èĩªèº«çļĦ": 5496,
      "è¿Ļç±»": 5497,
      "å½ĵä»£": 5498,
      "æĹ¥åīį": 5499,
      "èĲ½åľ°": 5500,
      "ä½Ļäºº": 5501,
      "åħĪè¿ĽçļĦ": 5502,
      "ä¿®æĶ¹": 5503,
      "æ®¿": 5504,
      "æıĲäº¤": 5505,
      "èģĮèĥ½": 5506,
      "æīĩ": 5507,
      "åĽłèĢĮ": 5508,
      "å¾Īé«ĺ": 5509,
      "èĥĸ": 5510,
      "å¹¿åľº": 5511,
      "ä½¿çĶ¨å¯¿åĳ½": 5512,
      "æĲŃéħį": 5513,
      "å½ĵå¹´": 5514,
      "çĨĶ": 5515,
      "èĨı": 5516,
      "å§Ķæīĺ": 5517,
      "éĹ¹": 5518,
      "åĤĻ": 5519,
      "åĲĪçĲĨçļĦ": 5520,
      "å¥ł": 5521,
      "çĪ½": 5522,
      "è©±": 5523,
      "è¹Ī": 5524,
      "æ°Ł": 5525,
      "IS": 5526,
      "ä¸įå¼Ģ": 5527,
      "æ¶¦æ»ĳ": 5528,
      "æĬ«": 5529,
      "ä¸Ģå¸¦ä¸Ģè·¯": 5530,
      "ç§©": 5531,
      "ç»µ": 5532,
      "42": 5533,
      "éĥİ": 5534,
      "æľįåĬ¡çļĦ": 5535,
      "æĹłçĸĳ": 5536,
      "æİ§èĤ¡": 5537,
      "ä¼ļå¯¼èĩ´": 5538,
      "èģª": 5539,
      "å¾Īå°ĳ": 5540,
      "æłĩåĩĨåĮĸ": 5541,
      "åĪ°è¾¾": 5542,
      "èŁ¹": 5543,
      "æŁ¥çľĭ": 5544,
      "èŃ°": 5545,
      "ä¼ļéķ¿": 5546,
      "å°Ŀè¯ķ": 5547,
      "åįĬåľº": 5548,
      "å·©åĽº": 5549,
      "çļĦä¸ľè¥¿": 5550,
      "åį³å°Ĩ": 5551,
      "åħ¬æ°ĳ": 5552,
      "å·¥ä¼ļ": 5553,
      "å¤ĸåĽ½": 5554,
      "æĽ¿ä»£": 5555,
      "çĭĢ": 5556,
      "çľŁæŃ£çļĦ": 5557,
      "éĢīæīĭ": 5558,
      "éłħ": 5559,
      "æ¶Īå¤±": 5560,
      "æĸ°é²ľ": 5561,
      "æĽ´å¤§çļĦ": 5562,
      "éģµå¾ª": 5563,
      "æ¾³éĹ¨": 5564,
      "æµªè´¹": 5565,
      "æ·®": 5566,
      "æĿĥå¨ģ": 5567,
      "ä½ĽæķĻ": 5568,
      "ĠâĢľ": 5569,
      "æ°ĳèĲ¥": 5570,
      "ä¹Łä¸įä¼ļ": 5571,
      "ä¼łæŁĵ": 5572,
      "æīĵåĩ»": 5573,
      "ang": 5574,
      "åŀ«": 5575,
      "å¾ģç¨ĭ": 5576,
      "ä¿ĿåŃĺ": 5577,
      "æī©æķ£": 5578,
      "æĢ»éĥ¨": 5579,
      "èĥļ": 5580,
      "å¥³åŃ©": 5581,
      "è¯¾é¢ĺ": 5582,
      "çĩĥçĥ§": 5583,
      "äºĶè¡Įç¼º": 5584,
      "æĢ§å¥½": 5585,
      "æĸ¯åĿ¦": 5586,
      "äº§èĥ½": 5587,
      "ä¼ĺè´¨çļĦ": 5588,
      "æĺ¾çĦ¶": 5589,
      "æĭĽèģĺ": 5590,
      "é£ŀæľº": 5591,
      "çļĦç¤¾ä¼ļ": 5592,
      "éħįå¤ĩ": 5593,
      "åĽŃæŀĹ": 5594,
      "åĴ³": 5595,
      "æ¶Į": 5596,
      "çģ«çģ¾": 5597,
      "èħĬ": 5598,
      "æĬļ": 5599,
      "66": 5600,
      "ç¿¼": 5601,
      "å£ĵ": 5602,
      "åıĤèµĽ": 5603,
      "ä¸¢": 5604,
      "èĶ¡": 5605,
      "çŃīå¾ħ": 5606,
      "ä¹Łå°Ĩ": 5607,
      "å¿ĥæĥħ": 5608,
      "çĹħåĽł": 5609,
      "ç³Ĭ": 5610,
      "å¤ĸè§Ĥ": 5611,
      "åĿļæĮģä»¥": 5612,
      "äºĴçĽ¸": 5613,
      "æķĳæı´": 5614,
      "æĦıéĹ´": 5615,
      "at": 5616,
      "åĲĦåĽ½": 5617,
      "å¸ķ": 5618,
      "æıĲåĪ°è¿ĩ": 5619,
      "è¶ħå£°": 5620,
      "éĨī": 5621,
      "éĩįå¤į": 5622,
      "éĢłæĪĲçļĦ": 5623,
      "ä¸ŃéĹ´": 5624,
      "èĢĲç£¨": 5625,
      "ç§©åºı": 5626,
      "èĪŁ": 5627,
      "å¨ľ": 5628,
      "èĭ¹": 5629,
      "èĦĨ": 5630,
      "ä¸Ĭæľī": 5631,
      "çŃīé¢ĨåŁŁ": 5632,
      "æķĻæĿĲ": 5633,
      "ç¤¾ä¼ļçļĦ": 5634,
      "æĻ®åıĬ": 5635,
      "ä¼ª": 5636,
      "ãĢĤãĢį": 5637,
      "ç«Ń": 5638,
      "å°±ä¸į": 5639,
      "çĶŁçĲĨ": 5640,
      "å®ŀåľ¨": 5641,
      "ä¾¿æĺ¯": 5642,
      "çĽĹ": 5643,
      "å²³": 5644,
      "æ¨Ĥ": 5645,
      "æķ°æİ§": 5646,
      "æĺ¯ä¸įæĺ¯": 5647,
      "éĢ»": 5648,
      "éĽ£": 5649,
      "çħ¤çĤŃ": 5650,
      "æĹ¥åħĥ": 5651,
      "æ£Ĵ": 5652,
      "çļĦéĢīæĭ©": 5653,
      "æī¹è¯Ħ": 5654,
      "éĲ": 5655,
      "çºĮ": 5656,
      "äºı": 5657,
      "ç¨ĭåº¦ä¸Ĭ": 5658,
      "éĺ²èħĲ": 5659,
      "åĽŀå®¶": 5660,
      "åħ¬åĬ¡": 5661,
      "è¡Ķ": 5662,
      "éĶĢéĩı": 5663,
      "å¿«éĢŁå¢ŀéķ¿": 5664,
      "è¦ģåľ¨": 5665,
      "å¤ªå¤ļ": 5666,
      "å³¡": 5667,
      "78": 5668,
      "æ²«": 5669,
      "è¿ĩçļĦ": 5670,
      "44": 5671,
      "è½¨éģĵ": 5672,
      "ä»İä¸ļ": 5673,
      "è¡¥è´´": 5674,
      "æ¨Ļ": 5675,
      "èĳ±": 5676,
      "å»ºéĢł": 5677,
      "é¦Ī": 5678,
      "è¨±": 5679,
      "æĥ©": 5680,
      "éľī": 5681,
      "çĻ¼å±ķ": 5682,
      "æĹ¥èĩ³": 5683,
      "å½¢çĬ¶": 5684,
      "åıł": 5685,
      "èĭ¹æŀľ": 5686,
      "è£Ŀ": 5687,
      "å·´è¥¿": 5688,
      "æ¾³å¤§åĪ©": 5689,
      "ç³ĸå°¿çĹħ": 5690,
      "æĬ¼": 5691,
      "ç¥Ń": 5692,
      "ä¸¸": 5693,
      "æĽ¾ç»ıæıĲåĪ°è¿ĩ": 5694,
      "ä»¥å¤ĸ": 5695,
      "LED": 5696,
      "éļ¾é¢ĺ": 5697,
      "èĤ¡æĿĥ": 5698,
      "äºĶè¡ĮåĪĨæŀĲ": 5699,
      "æ¶Ľ": 5700,
      "ä¸ºä¸Ńå¿ĥ": 5701,
      "åĲĦçķĮ": 5702,
      "é¢ĦæľŁ": 5703,
      "åīµ": 5704,
      "éĢļæĬ¥": 5705,
      "æī®": 5706,
      "å¾®çĶŁçī©": 5707,
      "å¸ĤæĶ¿åºľ": 5708,
      "æķĻèĤ²çļĦ": 5709,
      "æĢĿèĢĥè¿Ļä¸ªéĹ®é¢ĺ": 5710,
      "åıĳåĩº": 5711,
      "å¢ŀåĬłäºĨ": 5712,
      "çľĭçĿĢ": 5713,
      "ä¸Ńåħ¨ä¼ļ": 5714,
      "è¯ģæį®": 5715,
      "3000": 5716,
      "é»ĳèī²ç´ł": 5717,
      "æĽĿ": 5718,
      "è¯»ä¹¦": 5719,
      "ä¸Ńåįİæ°ĳæĹıä¼Łå¤§å¤įåħ´": 5720,
      "éĥ¨çļĦ": 5721,
      "è®©ä½ł": 5722,
      "ç¨İæĶ¶": 5723,
      "é²ľæĺİ": 5724,
      "150": 5725,
      "æĤ¨åħ«åŃĹ": 5726,
      "æĪĳæĥ³": 5727,
      "è½ī": 5728,
      "æĺ¾å¾Ĺ": 5729,
      "çĶŁæ®ĸ": 5730,
      "ä¼ļåĩºçİ°": 5731,
      "å¿ħè¦ģçļĦ": 5732,
      "åĪĨè§£": 5733,
      "è¥¿åįĹ": 5734,
      "ç´Ħ": 5735,
      "å¯¹æİ¥": 5736,
      "æ°Ķè±¡": 5737,
      "ä¸»åĬŀ": 5738,
      "çµĦ": 5739,
      "çļĦäººçĶŁ": 5740,
      "ä¼łéĢĴ": 5741,
      "ç»ıè´¹": 5742,
      "æ§½": 5743,
      "le": 5744,
      "åľ¨åħ¨åĽ½": 5745,
      "å·²æľī": 5746,
      "åħļåĳĺå¹²éĥ¨": 5747,
      "èĩªåŃ¦": 5748,
      "çĶµç¼Ĩ": 5749,
      "åĭĺ": 5750,
      "çĶŁäº§çº¿": 5751,
      "èĪ°": 5752,
      "åŃ£èĬĤ": 5753,
      "600": 5754,
      "çºªå½ķ": 5755,
      "è¾ĥé«ĺçļĦ": 5756,
      "åĲĮæľŁ": 5757,
      "æŁı": 5758,
      "ä½¿åħ¶": 5759,
      "éģ©": 5760,
      "å®ĮæĪĲäºĨ": 5761,
      "çļĦæľºä¼ļ": 5762,
      "æĺ¯æĪĳ": 5763,
      "æĭ¨": 5764,
      "å®ŀä¹ł": 5765,
      "å¯¹å¾ħ": 5766,
      "è¥¿åĮĹ": 5767,
      "çħ§æĺİ": 5768,
      "åİĨåı²ä¸Ĭ": 5769,
      "æĸ¹çļĦ": 5770,
      "åĪ©äºļ": 5771,
      "è¯Ħè®º": 5772,
      "çļĦè¿ĩç¨ĭ": 5773,
      ":ãĢĮ": 5774,
      "å·¥ä½ľèĢħ": 5775,
      "å°ıè¯´": 5776,
      "éĤ£æł·": 5777,
      "å±Ģéķ¿": 5778,
      "åħħè¶³": 5779,
      "æīŃ": 5780,
      "çĭ¬çī¹çļĦ": 5781,
      "å»Ĭ": 5782,
      "åĩºçĶŁäºİ": 5783,
      "é¥°æ¼Ķ": 5784,
      "æĮĩç¤º": 5785,
      "æķ°æį®æĺ¾ç¤º": 5786,
      "ä¸įåľ¨": 5787,
      "ä¸įåĪ©": 5788,
      "çļĦçĽ®æłĩ": 5789,
      "çĲĨçĶ±": 5790,
      "ing": 5791,
      "åħļçļĦåįģä¹Ŀ": 5792,
      "å¤ļé¡¹": 5793,
      "æ¨¡åŀĭ": 5794,
      "çĶŁåĬ¨": 5795,
      "æ·±æĢĿ": 5796,
      "æ³ķå®ļ": 5797,
      "åıĺå½¢": 5798,
      "éĢĬ": 5799,
      "çľ¾": 5800,
      "å¿ĥä¸Ń": 5801,
      "ç»ĻäºĨ": 5802,
      "è½¬æį¢": 5803,
      "çĶĺèĤĥ": 5804,
      "åħ½": 5805,
      "å¥Ī": 5806,
      "ä¸įç¦ģ": 5807,
      "åĲĮæĹ¶ä¹Ł": 5808,
      "æľįåĭĻ": 5809,
      "æĬ¥èŃ¦": 5810,
      "æīĵåį°": 5811,
      "çĺ¦": 5812,
      "å»ºè®¾åĴĮ": 5813,
      "æķ´æ²»": 5814,
      "å¹³ç¨³": 5815,
      "åģ¥èº«": 5816,
      "åŃ¦æł¡çļĦ": 5817,
      "çļĦæķħäºĭ": 5818,
      "å¿ĥèĦı": 5819,
      "æ¸ĹéĢı": 5820,
      "ä¸įæĸŃæıĲé«ĺ": 5821,
      "ç¼ºçĤ¹": 5822,
      "ãĢĤãĢĤ": 5823,
      "äººåĬĽèµĦæºĲ": 5824,
      "è¯¸å¤ļ": 5825,
      "Ġ1": 5826,
      "åįĵè¶Ĭ": 5827,
      "Ġå¹´": 5828,
      "å¤ļå¹´æĿ¥": 5829,
      "ä¸»åľº": 5830,
      "æ¾³å¤§åĪ©äºļ": 5831,
      "èĬ½": 5832,
      "èŃ·": 5833,
      "æį®æĤī": 5834,
      "äºīåıĸ": 5835,
      "è§Ĥçľĭ": 5836,
      "æĸ°çĶŁ": 5837,
      "åĲĮä¸Ģ": 5838,
      "å¤ªéĺ³èĥ½": 5839,
      "æĢ¨": 5840,
      "æ°´ä¸Ń": 5841,
      "ä¾ĽåºĶéĵ¾": 5842,
      "éª¤": 5843,
      "æ°´åĪĨ": 5844,
      "éĢīä¸¾": 5845,
      "çİ°åľ¨çļĦ": 5846,
      "5000": 5847,
      "ç¬¬ä¸ĥ": 5848,
      "åıįèĢĮ": 5849,
      "æĬĬæĪĳä»¬": 5850,
      "åı¯ä»¥éĢļè¿ĩ": 5851,
      "åŁİåĮº": 5852,
      "è¦º": 5853,
      "å¤§äºİ": 5854,
      "è®¾æľī": 5855,
      "å±ĤéĿ¢": 5856,
      "æĶ¶åĪ°": 5857,
      "çķĻä¸ĭ": 5858,
      "æİĪäºĪ": 5859,
      "å¸¦æĿ¥äºĨ": 5860,
      "çĶµè§Ĩåī§": 5861,
      "èĳĽ": 5862,
      "å®¶æĹı": 5863,
      "åįıä½ľ": 5864,
      "æŁĲç§į": 5865,
      "åĪĿæŃ¥": 5866,
      "çļĦçĽ®çļĦ": 5867,
      "é¥®æĸĻ": 5868,
      "åħĴ": 5869,
      "ä¹ĭæīĢä»¥": 5870,
      "èĪŀè¹Ī": 5871,
      "éĴł": 5872,
      "èģĮåĬ¡": 5873,
      "æ¹ĺ": 5874,
      "å®ŀä½ĵ": 5875,
      "æĹħè¡Į": 5876,
      "æĪĲä¸ºäºĨ": 5877,
      "åĬŀäºĭ": 5878,
      "æŀ¢": 5879,
      "ä¸»æ¼Ķ": 5880,
      "è¦ģæĬĬ": 5881,
      "å¯¹åħ¶": 5882,
      "çļĦåħ³ç³»": 5883,
      "æĹ¶å°ļ": 5884,
      "ä¾¨": 5885,
      "å¤ĸçķĮ": 5886,
      "è¶ħè¶Ĭ": 5887,
      "åº§è°Ī": 5888,
      "éģĹäº§": 5889,
      "é¹¿": 5890,
      "èķ´": 5891,
      "ç§įåŃĲ": 5892,
      "äºĮæ¬¡": 5893,
      "æĺ¯æĪĳä»¬": 5894,
      "çķı": 5895,
      "å½ĵäºĭ": 5896,
      "æ£ļ": 5897,
      "ä¸Ĭå¹´": 5898,
      "ä¸ĭè½½": 5899,
      "è¯ĬçĸĹ": 5900,
      "ç¤¾äº¤": 5901,
      "ä¾Ŀèµĸ": 5902,
      "é»ı": 5903,
      "åħ¥åı£": 5904,
      "é«ĺæĸ°æĬĢæľ¯": 5905,
      "æ¡¥æ¢ģ": 5906,
      "ä¸ĵä¸ļæĬĢæľ¯": 5907,
      "å¸¸åĬ¡": 5908,
      "ç²¾å¿ĥ": 5909,
      "å±±ä¸ľçľģ": 5910,
      "å¸½": 5911,
      "å¥½å¤Ħ": 5912,
      "æ¯ıæĹ¥": 5913,
      "å¯¨": 5914,
      "åĨħå¿ĥ": 5915,
      "è¯±åıĳ": 5916,
      "åĨįçĶŁ": 5917,
      "åľ°éľĩ": 5918,
      "ä¸ºæŃ¤": 5919,
      "è´Łæĭħ": 5920,
      "åį¸": 5921,
      "çģ£": 5922,
      "åįģä¸Ģ": 5923,
      "çļĦè¡Įä¸º": 5924,
      "åĤħ": 5925,
      "ç¢Ĺ": 5926,
      "2006": 5927,
      "éļĶç¦»": 5928,
      "ç®¡çĲĨä½ĵç³»": 5929,
      "è®²è¿°": 5930,
      "æĢ»å±Ģ": 5931,
      "æĬ¥èĢĥ": 5932,
      "éħ¬": 5933,
      "åķıé¡Į": 5934,
      "äººåĴĮ": 5935,
      "çĹĴ": 5936,
      "2007": 5937,
      "è¯Ħå®¡": 5938,
      "æĬĢå·§": 5939,
      "43": 5940,
      "ä¼ĺå¼Ĥ": 5941,
      "éĴ¢ç»ĵæŀĦ": 5942,
      "éĺŁåĳĺ": 5943,
      "ä¸Ģä½ĵçļĦ": 5944,
      "è¾¦": 5945,
      "ç¤¾ä¼ļä¸»ä¹īçİ°ä»£åĮĸ": 5946,
      "çļĦåıĺåĮĸ": 5947,
      "ä¸ĢçĶŁ": 5948,
      "èĬĤçľģ": 5949,
      "å¾ħéģĩ": 5950,
      "æĥ§": 5951,
      "çŃĴ": 5952,
      "èģĮç§°": 5953,
      "èĥ½åĬĽåĴĮ": 5954,
      "æĮĸæİĺ": 5955,
      "å¹´åīį": 5956,
      "æĪ¿åŃĲ": 5957,
      "æľŁéĻĲ": 5958,
      "åĪļåĪļ": 5959,
      "120": 5960,
      "çĶµè·¯": 5961,
      "åĲķ": 5962,
      "å°ıåĮº": 5963,
      "åĨĽéĺŁ": 5964,
      "åľ°éĵģ": 5965,
      "æĵļ": 5966,
      "éĢļçĶ¨": 5967,
      "èħ»": 5968,
      "ç¢º": 5969,
      "çļĦç¾İ": 5970,
      "åĲĮäºĭ": 5971,
      "è¿ĽèĢĮ": 5972,
      "çķľ": 5973,
      "è¿Ļå°±": 5974,
      "èĬ¬": 5975,
      "å¤§å¸Ī": 5976,
      "ä¸İæŃ¤": 5977,
      "äººå¿ĥ": 5978,
      "èµĲ": 5979,
      "åİŁæľ¬": 5980,
      "ç®¡çĲĨçļĦ": 5981,
      "æııè¿°": 5982,
      "æĲħ": 5983,
      "åı¹": 5984,
      "åĽ½éĺ²": 5985,
      "ä»¶äºĭ": 5986,
      "æľīå¤ļ": 5987,
      "ç¢§": 5988,
      "å¼ºåĽ½": 5989,
      "68": 5990,
      "å¸¦åĪ°äºĨ": 5991,
      "åĨ²çªģ": 5992,
      "çľŁç©º": 5993,
      "åŃĺåĤ¨": 5994,
      "æįŁåĿı": 5995,
      "et": 5996,
      "èĻ¾": 5997,
      "æľ¬è´¨": 5998,
      "è¿ĺæ²¡æľī": 5999,
      "åįłæ¯Ķ": 6000,
      "æ±°": 6001,
      "æ¡£æ¡Ī": 6002,
      "åĶ®åĲİæľįåĬ¡": 6003,
      "52": 6004,
      "åľ¨å¤§": 6005,
      "èµ°è¿Ľ": 6006,
      "æ¶µçĽĸ": 6007,
      "æ°´å¹³çļĦ": 6008,
      "çŃĶæ¡Ī": 6009,
      "li": 6010,
      "zh": 6011,
      "é¸¿": 6012,
      "å¿½è§Ĩ": 6013,
      "è¿Ŀè§Ħ": 6014,
      "ä¸Īå¤«": 6015,
      "åįıåķĨ": 6016,
      "æ¬§åĨł": 6017,
      "åĪ¶åĨ·": 6018,
      "èĽĩ": 6019,
      "æ²³åįĹçľģ": 6020,
      "æĶ¶è´Ń": 6021,
      "è¾ĵåĩº": 6022,
      "è¿Ļä¸ĢçĤ¹": 6023,
      "ç®ĢåįķçļĦ": 6024,
      "æĢ»é¢Ŀ": 6025,
      "ä¸įä¸Ģæł·": 6026,
      "çŀ¬": 6027,
      "æĹ¥åľ¨": 6028,
      "æĳĦå½±": 6029,
      "æµģéĢļ": 6030,
      "æķ£çĥŃ": 6031,
      "åĬ©æĶ»": 6032,
      "ä»Ķç»Ĩ": 6033,
      "çłĶç©¶ä¸Ńå¿ĥ": 6034,
      "çī©èµĦ": 6035,
      "æĪĺèĥľ": 6036,
      "èŃī": 6037,
      "éĨĽ": 6038,
      "ä¸²": 6039,
      "åĦĴ": 6040,
      "èĢĮæĪĲ": 6041,
      "æį®äºĨè§£": 6042,
      "åľ°çĤ¹": 6043,
      "äº¤æį¢": 6044,
      "åİĨç¨ĭ": 6045,
      "è½¦éĹ´": 6046,
      "åĮł": 6047,
      "åĬłæĭ¿": 6048,
      "å¥¹ä»¬": 6049,
      "éĺĲ": 6050,
      "ao": 6051,
      "å¦¥": 6052,
      "ä¸ªä½ĵ": 6053,
      "ä¸įä»ħä»ħ": 6054,
      "å¸¦å¤´": 6055,
      "41": 6056,
      "èĮ¨": 6057,
      "åľĺ": 6058,
      "æĶ»åĩ»": 6059,
      "çŃīéĹ®é¢ĺ": 6060,
      "åıĳçĶŁäºĨ": 6061,
      "ä¿ĿçķĻ": 6062,
      "è¯Ī": 6063,
      "çİĦ": 6064,
      "éģ£": 6065,
      "éĩįè¦ģçļĦæĺ¯": 6066,
      "æľīæķĪåľ°": 6067,
      "èĮĤ": 6068,
      "æ±¡æ³¥": 6069,
      "æĶ¶èĹı": 6070,
      "åľĸ": 6071,
      "ç³ķ": 6072,
      "ç»§æī¿": 6073,
      "å½ĵå¤©": 6074,
      "ä¹¾": 6075,
      "ä¸įåıĹ": 6076,
      "èģļæ°¨": 6077,
      "å¡ĺ": 6078,
      "æľĢä¸º": 6079,
      "æĿĲè´¨": 6080,
      "å®Įç¾İ": 6081,
      "é¾Ļæ±Ł": 6082,
      "77": 6083,
      "å¤ıåŃ£": 6084,
      "æ¼ł": 6085,
      "å¤ļæķ°": 6086,
      "ä¸¤æ¬¡": 6087,
      "éħ·": 6088,
      "ä½İæ¸©": 6089,
      "åį»": 6090,
      "åħ¥éĢī": 6091,
      "æĪĳä»¬åı¯ä»¥": 6092,
      "åİŁæĿ¥": 6093,
      "ä¸Ĭä¸Ģ": 6094,
      "çİ°çĬ¶": 6095,
      "åĨħåĪĨæ³Į": 6096,
      "æĿ¡ä»¶ä¸ĭ": 6097,
      "ç²¾å¯Ĩ": 6098,
      "åħļç»Ħ": 6099,
      "æī¿åıĹ": 6100,
      "ç¨³å®ļæĢ§": 6101,
      "åĲ¸éĻĦ": 6102,
      "æĶ¾æĿ¾": 6103,
      "åı£èħĶ": 6104,
      "æ±Łèĭıçľģ": 6105,
      "åħ¨å¹´": 6106,
      "éĤ£éĩĮ": 6107,
      "çľĭè§ģ": 6108,
      "çºªå§Ķ": 6109,
      "æ»ŀ": 6110,
      "æº¢": 6111,
      "è¢«ç§°ä¸º": 6112,
      "éĹ¨çªĹ": 6113,
      "çĻ½éħĴ": 6114,
      "æĪĲç«ĭäºİ": 6115,
      "ä¸ŃåĴĮ": 6116,
      "å¼µ": 6117,
      "å®¶å±ħ": 6118,
      "èĲĿåįľ": 6119,
      "æĸ°åĨłèĤºçĤİ": 6120,
      "é£ĺ": 6121,
      "??": 6122,
      "åıĥ": 6123,
      "è¨ĺ": 6124,
      "è«ĸ": 6125,
      "åıĳåĬ¨æľº": 6126,
      "æ³»": 6127,
      "èĨ¨": 6128,
      "èĭıå·ŀ": 6129,
      "æĢ¥æĢ§": 6130,
      "éĢıéľ²": 6131,
      "çĨ¬": 6132,
      "æĦŁåıĹåĪ°": 6133,
      "ç¯®æĿ¿": 6134,
      "å¿ĥæĢģ": 6135,
      "ä¸įä¹ħ": 6136,
      "è¾ħå¯¼": 6137,
      "èı©": 6138,
      "é½Ĳåħ¨": 6139,
      "æĪĳåľ¨": 6140,
      "è¿Ľåıĸ": 6141,
      "éĽ¶ä»¶": 6142,
      "åİĺç±³": 6143
    },
    "merges": [
      [
        "ä",
        "¸"
      ],
      [
        "ã",
        "Ģ"
      ],
      [
        "ç",
        "ļ"
      ],
      [
        "çļ",
        "Ħ"
      ],
      [
        "ä",
        "º"
      ],
      [
        "ãĢ",
        "Ĥ"
      ],
      [
        "æ",
        "ľ"
      ],
      [
        "å",
        "ı"
      ],
      [
        "å",
        "ħ"
      ],
      [
        "ä",
        "»"
      ],
      [
        "ãĢ",
        "ģ"
      ],
      [
        "å",
        "¤"
      ],
      [
        "å",
        "®"
      ],
      [
        "å",
        "Ī"
      ],
      [
        "ä",
        "½"
      ],
      [
        "è",
        "¿"
      ],
      [
        "ç",
        "Ķ"
      ],
      [
        "å",
        "ľ"
      ],
      [
        "å",
        "Ĳ"
      ],
      [
        "å",
        "Ĭ"
      ],
      [
        "æ",
        "ĺ"
      ],
      [
        "ç",
        "»"
      ],
      [
        "å",
        "Ľ"
      ],
      [
        "æ",
        "Ī"
      ],
      [
        "æ",
        "ĸ"
      ],
      [
        "ä",
        "¹"
      ],
      [
        "ä",
        "¼"
      ],
      [
        "ä¸",
        "Ģ"
      ],
      [
        "å",
        "¹"
      ],
      [
        "å",
        "°"
      ],
      [
        "æĺ",
        "¯"
      ],
      [
        "å",
        "Ń"
      ],
      [
        "è",
        "®"
      ],
      [
        "æ",
        "Ĺ"
      ],
      [
        "â",
        "Ģ"
      ],
      [
        "å",
        "į"
      ],
      [
        "å",
        "·"
      ],
      [
        "è",
        "¯"
      ],
      [
        "æľ",
        "ī"
      ],
      [
        "åľ",
        "¨"
      ],
      [
        "é",
        "ĩ"
      ],
      [
        "æ",
        "Ŀ"
      ],
      [
        "äº",
        "º"
      ],
      [
        "å",
        "Į"
      ],
      [
        "ä¸",
        "į"
      ],
      [
        "å",
        "¸"
      ],
      [
        "å",
        "º"
      ],
      [
        "ä¸",
        "Ń"
      ],
      [
        "å",
        "¼"
      ],
      [
        "æ",
        "ī"
      ],
      [
        "é",
        "Ģ"
      ],
      [
        "å",
        "Ĵ"
      ],
      [
        "è",
        "¡"
      ],
      [
        "å",
        "Ĩ"
      ],
      [
        "å",
        "¾"
      ],
      [
        "å",
        "¯"
      ],
      [
        "è",
        "Ģ"
      ],
      [
        "åĴ",
        "Į"
      ],
      [
        "å",
        "ĩ"
      ],
      [
        "äº",
        "Ĩ"
      ],
      [
        "æ",
        "ķ"
      ],
      [
        "å",
        "±"
      ],
      [
        "ĥ",
        "½"
      ],
      [
        "æ",
        "Ģ"
      ],
      [
        "å¤",
        "§"
      ],
      [
        "ç",
        "Ľ"
      ],
      [
        "æ",
        "°"
      ],
      [
        "æ",
        "Ĭ"
      ],
      [
        "ä¸",
        "º"
      ],
      [
        "è",
        "´"
      ],
      [
        "ç",
        "§"
      ],
      [
        "æ",
        "ł"
      ],
      [
        "åĽ",
        "½"
      ],
      [
        "è",
        "§"
      ],
      [
        "çĶ",
        "Ł"
      ],
      [
        "ç",
        "İ"
      ],
      [
        "è",
        "¦"
      ],
      [
        "ä¸",
        "ļ"
      ],
      [
        "ç",
        "ī"
      ],
      [
        "è",
        "µ"
      ],
      [
        "ä»",
        "¥"
      ],
      [
        "å",
        "¥"
      ],
      [
        "æ",
        "Ķ"
      ],
      [
        "è¦",
        "ģ"
      ],
      [
        "å",
        "¿"
      ],
      [
        "é",
        "Ļ"
      ],
      [
        "åŃ",
        "¦"
      ],
      [
        "é",
        "Ŀ"
      ],
      [
        "åı",
        "ĳ"
      ],
      [
        "è",
        "ĩ"
      ],
      [
        "ä¼",
        "ļ"
      ],
      [
        "å¹",
        "´"
      ],
      [
        "å",
        "İ"
      ],
      [
        "æ",
        "Ń"
      ],
      [
        "çĶ",
        "¨"
      ],
      [
        "ç",
        "Ń"
      ],
      [
        "æ",
        "³"
      ],
      [
        "ç",
        "Ĳ"
      ],
      [
        "å",
        "½"
      ],
      [
        "ä",
        "¿"
      ],
      [
        "è",
        "ĥ½"
      ],
      [
        "æ",
        "²"
      ],
      [
        "ç",
        "º"
      ],
      [
        "é",
        "Ĺ"
      ],
      [
        "å·",
        "¥"
      ],
      [
        "ä½",
        "ľ"
      ],
      [
        "ä¸",
        "Ĭ"
      ],
      [
        "å",
        "ĳ"
      ],
      [
        "æ",
        "İ"
      ],
      [
        "æ",
        "ŀ"
      ],
      [
        "æĹ",
        "¶"
      ],
      [
        "æ",
        "µ"
      ],
      [
        "ä¸",
        "ª"
      ],
      [
        "âĢ",
        "ľ"
      ],
      [
        "âĢ",
        "Ŀ"
      ],
      [
        "æĪ",
        "Ĳ"
      ],
      [
        "è¡",
        "Į"
      ],
      [
        "å",
        "ĵ"
      ],
      [
        "è¿",
        "Ļ"
      ],
      [
        "åı",
        "¯"
      ],
      [
        "é",
        "¢"
      ],
      [
        "æĪ",
        "ĳ"
      ],
      [
        "åĪ",
        "°"
      ],
      [
        "æ",
        "Į"
      ],
      [
        "å¯",
        "¹"
      ],
      [
        "æ",
        "¯"
      ],
      [
        "åĩ",
        "º"
      ],
      [
        "é",
        "ĺ"
      ],
      [
        "å",
        "Ł"
      ],
      [
        "æ",
        "ĥ"
      ],
      [
        "è",
        "¾"
      ],
      [
        "é",
        "«"
      ],
      [
        "å®",
        "¶"
      ],
      [
        "äº",
        "İ"
      ],
      [
        "çĲ",
        "Ĩ"
      ],
      [
        "ç",
        "ľ"
      ],
      [
        "è",
        "Ĥ"
      ],
      [
        "å",
        "ī"
      ],
      [
        "é«",
        "ĺ"
      ],
      [
        "æĿ",
        "¥"
      ],
      [
        "äº",
        "§"
      ],
      [
        "æ",
        "±"
      ],
      [
        "çŃ",
        "ī"
      ],
      [
        "åľ",
        "°"
      ],
      [
        "å¤",
        "ļ"
      ],
      [
        "æ",
        "Ħ"
      ],
      [
        "åĮ",
        "ĸ"
      ],
      [
        "æ",
        "ĭ"
      ],
      [
        "åħ",
        "¨"
      ],
      [
        "æĸ",
        "¹"
      ],
      [
        "åĬ",
        "Ľ"
      ],
      [
        "åĪ",
        "Ĩ"
      ],
      [
        "è¿",
        "Ľ"
      ],
      [
        "èĩ",
        "ª"
      ],
      [
        "è",
        "½"
      ],
      [
        "é",
        "ģ"
      ],
      [
        "ä½",
        "ĵ"
      ],
      [
        "æĸ",
        "°"
      ],
      [
        "å",
        "»"
      ],
      [
        "ç",
        "®"
      ],
      [
        "æĢ",
        "§"
      ],
      [
        "ä",
        "¾"
      ],
      [
        "åĬ",
        "¨"
      ],
      [
        "æ",
        "´"
      ],
      [
        "ç",
        "«"
      ],
      [
        "å®",
        "ŀ"
      ],
      [
        "åħ",
        "¬"
      ],
      [
        "ç»",
        "ı"
      ],
      [
        "è¿",
        "ĩ"
      ],
      [
        "æ",
        "¸"
      ],
      [
        "é",
        "ĥ"
      ],
      [
        "ä¹",
        "Ł"
      ],
      [
        "çİ",
        "°"
      ],
      [
        "ä»",
        "¬"
      ],
      [
        "å",
        "¦"
      ],
      [
        "ç",
        "¨"
      ],
      [
        "å±",
        "ķ"
      ],
      [
        "å°",
        "±"
      ],
      [
        "åĲ",
        "Ī"
      ],
      [
        "åĲ",
        "İ"
      ],
      [
        "é",
        "ķ"
      ],
      [
        "ä¸",
        "»"
      ],
      [
        "ç",
        "Ļ"
      ],
      [
        "å",
        "ģ"
      ],
      [
        "é",
        "£"
      ],
      [
        "ç",
        "Ĥ"
      ],
      [
        "ä¸",
        "ĭ"
      ],
      [
        "éĿ",
        "¢"
      ],
      [
        "æ",
        "ı"
      ],
      [
        "éĩ",
        "į"
      ],
      [
        "æ",
        "Ľ"
      ],
      [
        "æ",
        "¬"
      ],
      [
        "ç",
        "½"
      ],
      [
        "å»",
        "º"
      ],
      [
        "æľ",
        "º"
      ],
      [
        "ä»",
        "ĸ"
      ],
      [
        "å®",
        "ļ"
      ],
      [
        "åĵ",
        "ģ"
      ],
      [
        "éĥ",
        "¨"
      ],
      [
        "åĲ",
        "Į"
      ],
      [
        "å¥",
        "½"
      ],
      [
        "è",
        "ī"
      ],
      [
        "åĬ",
        "ł"
      ],
      [
        "ä¸",
        "İ"
      ],
      [
        "å¿",
        "ĥ"
      ],
      [
        "é",
        "¡"
      ],
      [
        "è®",
        "¾"
      ],
      [
        "æ³",
        "ķ"
      ],
      [
        "å¸",
        "Ĥ"
      ],
      [
        "ä¹",
        "ĭ"
      ],
      [
        "è",
        "ģ"
      ],
      [
        "æ°",
        "´"
      ],
      [
        "åº",
        "¦"
      ],
      [
        "ç",
        "¤"
      ],
      [
        "èĢ",
        "Į"
      ],
      [
        "å¼",
        "Ģ"
      ],
      [
        "ç",
        "Ĺ"
      ],
      [
        "é",
        "Ľ"
      ],
      [
        "åŃ",
        "Ĳ"
      ],
      [
        "å",
        "¢"
      ],
      [
        "æ",
        "Ļ"
      ],
      [
        "åħ",
        "¶"
      ],
      [
        "åĪ",
        "¶"
      ],
      [
        "æľ",
        "¬"
      ],
      [
        "å",
        "Ģ"
      ],
      [
        "å¾",
        "Ĺ"
      ],
      [
        "èĢ",
        "ħ"
      ],
      [
        "éĩ",
        "ı"
      ],
      [
        "2",
        "0"
      ],
      [
        "è",
        "¶"
      ],
      [
        "ç",
        "ĸ"
      ],
      [
        "è",
        "·"
      ],
      [
        "ç",
        "¬"
      ],
      [
        "éķ",
        "¿"
      ],
      [
        "ç",
        "Ł"
      ],
      [
        "æı",
        "Ĳ"
      ],
      [
        "çī",
        "©"
      ],
      [
        "è",
        "°"
      ],
      [
        "å",
        "Ŀ"
      ],
      [
        "å¦",
        "Ĥ"
      ],
      [
        "åħ",
        "³"
      ],
      [
        "åĬ",
        "¡"
      ],
      [
        "æī",
        "Ģ"
      ],
      [
        "ä¿",
        "Ŀ"
      ],
      [
        "ç",
        "¾"
      ],
      [
        "ç®",
        "¡"
      ],
      [
        "åı",
        "Ĭ"
      ],
      [
        "äº",
        "ĭ"
      ],
      [
        "æĹ",
        "¥"
      ],
      [
        "åº",
        "Ķ"
      ],
      [
        "åī",
        "į"
      ],
      [
        "é",
        "ļ"
      ],
      [
        "æ",
        "¶"
      ],
      [
        "éĢ",
        "ļ"
      ],
      [
        "æ",
        "į"
      ],
      [
        "åĨ",
        "ħ"
      ],
      [
        "ç",
        "Ŀ"
      ],
      [
        "é",
        "ĥ½"
      ],
      [
        "çĶ",
        "µ"
      ],
      [
        "æķ",
        "Ļ"
      ],
      [
        "ç",
        "³"
      ],
      [
        "å",
        "§"
      ],
      [
        "ç",
        "ł"
      ],
      [
        "åľ",
        "º"
      ],
      [
        "ç",
        "ķ"
      ],
      [
        "ç",
        "©"
      ],
      [
        "è",
        "Ĭ"
      ],
      [
        "æĥ",
        "ħ"
      ],
      [
        "ç",
        "²"
      ],
      [
        "ç§",
        "į"
      ],
      [
        "åĽ",
        "ł"
      ],
      [
        "å°",
        "ı"
      ],
      [
        "æľ",
        "Ī"
      ],
      [
        "ç",
        "Ħ"
      ],
      [
        "æĸ",
        "ĩ"
      ],
      [
        "æ",
        "Ł"
      ],
      [
        "ç",
        "´"
      ],
      [
        "åĮ",
        "º"
      ],
      [
        "æ°",
        "ĳ"
      ],
      [
        "ç¨",
        "ĭ"
      ],
      [
        "å¤",
        "ĸ"
      ],
      [
        "è",
        "Ĳ"
      ],
      [
        "å¹",
        "³"
      ],
      [
        "åıĳ",
        "å±ķ"
      ],
      [
        "æľ",
        "Ģ"
      ],
      [
        "èµ",
        "Ħ"
      ],
      [
        "ç",
        "ĥ"
      ],
      [
        "æĬ",
        "Ģ"
      ],
      [
        "é",
        "ľ"
      ],
      [
        "ç§",
        "ĳ"
      ],
      [
        "æĽ",
        "´"
      ],
      [
        "åĳ",
        "ĺ"
      ],
      [
        "é",
        "ħ"
      ],
      [
        "å·¥",
        "ä½ľ"
      ],
      [
        "éĹ",
        "´"
      ],
      [
        "çĽ",
        "®"
      ],
      [
        "ä½",
        "į"
      ],
      [
        "çĽ",
        "¸"
      ],
      [
        "æĦ",
        "ı"
      ],
      [
        "ä¸Ń",
        "åĽ½"
      ],
      [
        "å¤",
        "©"
      ],
      [
        "è´",
        "¨"
      ],
      [
        "åħ",
        "¥"
      ],
      [
        "å°",
        "Ĩ"
      ],
      [
        "æľ",
        "¯"
      ],
      [
        "å¸",
        "¸"
      ],
      [
        "å®",
        "ī"
      ],
      [
        "æľ",
        "Ł"
      ],
      [
        "æ¯",
        "Ķ"
      ],
      [
        "ç",
        "¡"
      ],
      [
        "ä»",
        "£"
      ],
      [
        "ç³",
        "»"
      ],
      [
        "æĶ",
        "¿"
      ],
      [
        "çĤ",
        "¹"
      ],
      [
        "ä½",
        "¿"
      ],
      [
        "å¼",
        "º"
      ],
      [
        "ç¬",
        "¬"
      ],
      [
        "è¡",
        "¨"
      ],
      [
        "Ĥ",
        "£"
      ],
      [
        "å¾",
        "Ī"
      ],
      [
        "ä¸",
        "ī"
      ],
      [
        "ç",
        "±"
      ],
      [
        "é",
        "Ķ"
      ],
      [
        "è¯",
        "´"
      ],
      [
        "æ",
        "·"
      ],
      [
        "è",
        "ĥ"
      ],
      [
        "å½",
        "ĵ"
      ],
      [
        "æ´",
        "»"
      ],
      [
        "åı",
        "¸"
      ],
      [
        "è¿",
        "ĺ"
      ],
      [
        "éģ",
        "ĵ"
      ],
      [
        "æŀ",
        "ľ"
      ],
      [
        "çī",
        "¹"
      ],
      [
        "ä¼",
        "ģ"
      ],
      [
        "æ²",
        "»"
      ],
      [
        "è",
        "į"
      ],
      [
        "èµ",
        "·"
      ],
      [
        "éĩ",
        "ĳ"
      ],
      [
        "ä»",
        "İ"
      ],
      [
        "å¹",
        "¶"
      ],
      [
        "åı¯",
        "ä»¥"
      ],
      [
        "æ",
        "ģ"
      ],
      [
        "æĺ",
        "İ"
      ],
      [
        "åĪ",
        "©"
      ],
      [
        "ç",
        "¥"
      ],
      [
        "æ¬",
        "¡"
      ],
      [
        "è",
        "Ī"
      ],
      [
        "æŃ",
        "¤"
      ],
      [
        "çĦ",
        "¶"
      ],
      [
        "ä¿",
        "¡"
      ],
      [
        "çĿ",
        "Ģ"
      ],
      [
        "åŁ",
        "º"
      ],
      [
        "ãĢ",
        "ĭ"
      ],
      [
        "ãĢ",
        "Ĭ"
      ],
      [
        "åĲ",
        "Ħ"
      ],
      [
        "ä½",
        "Ĩ"
      ],
      [
        "ä¸",
        "ĵ"
      ],
      [
        "é£",
        "İ"
      ],
      [
        "æĪĳ",
        "ä»¬"
      ],
      [
        "é",
        "Ĵ"
      ],
      [
        "æĪ",
        "ĸ"
      ],
      [
        "ä¼ģ",
        "ä¸ļ"
      ],
      [
        "åħ¬",
        "åı¸"
      ],
      [
        "åĲ",
        "į"
      ],
      [
        "æĮ",
        "ģ"
      ],
      [
        "éĻ",
        "¢"
      ],
      [
        "è®",
        "¡"
      ],
      [
        "æľ",
        "į"
      ],
      [
        "åħ",
        "ļ"
      ],
      [
        "æķ",
        "°"
      ],
      [
        "ç¾",
        "İ"
      ],
      [
        "é",
        "ĵ"
      ],
      [
        "æĹ",
        "ł"
      ],
      [
        "äº",
        "Ľ"
      ],
      [
        "ä¸Ģ",
        "ä¸ª"
      ],
      [
        "è§",
        "Ħ"
      ],
      [
        "ç",
        "ģ"
      ],
      [
        "çĹ",
        "ħ"
      ],
      [
        "å¼",
        "ı"
      ],
      [
        "èĤ",
        "²"
      ],
      [
        "è",
        "ĭ"
      ],
      [
        "æŃ",
        "£"
      ],
      [
        "ä½",
        "ł"
      ],
      [
        "è§",
        "£"
      ],
      [
        "é",
        "¦"
      ],
      [
        "ç»",
        "ĵ"
      ],
      [
        "å¯",
        "¼"
      ],
      [
        "ç",
        "¼"
      ],
      [
        "éĢ",
        "ł"
      ],
      [
        "è",
        "¢"
      ],
      [
        "è",
        "£"
      ],
      [
        "å",
        "£"
      ],
      [
        "è",
        "º"
      ],
      [
        "éľ",
        "Ģ"
      ],
      [
        "å",
        "ķ"
      ],
      [
        "ç¤",
        "¾"
      ],
      [
        "ä»",
        "»"
      ],
      [
        "æ",
        "º"
      ],
      [
        "èī",
        "²"
      ],
      [
        "äº",
        "Į"
      ],
      [
        "å",
        "ĸ"
      ],
      [
        "ç»",
        "Ł"
      ],
      [
        "æ",
        "¡"
      ],
      [
        "å",
        "ŀ"
      ],
      [
        "ç",
        "Ī"
      ],
      [
        "æ°",
        "Ķ"
      ],
      [
        "é¢",
        "ĺ"
      ],
      [
        "æ±",
        "Ĥ"
      ],
      [
        "åį",
        "ģ"
      ],
      [
        "åģ",
        "ļ"
      ],
      [
        "åħ",
        "·"
      ],
      [
        "è",
        "Ħ"
      ],
      [
        "åĪ",
        "Ľ"
      ],
      [
        "åĮ",
        "»"
      ],
      [
        "çł",
        "Ķ"
      ],
      [
        "çľ",
        "ĭ"
      ],
      [
        "é¡",
        "¹"
      ],
      [
        "èº",
        "«"
      ],
      [
        "0",
        "0"
      ],
      [
        "ç«",
        "ĭ"
      ],
      [
        "éĩ",
        "Į"
      ],
      [
        "åħ",
        "ĥ"
      ],
      [
        "ç",
        "¦"
      ],
      [
        "æĦ",
        "Ł"
      ],
      [
        "å¢",
        "ŀ"
      ],
      [
        "å¤",
        "Ħ"
      ],
      [
        "æķ",
        "Ī"
      ],
      [
        "æł",
        "ĩ"
      ],
      [
        "æĥ",
        "³"
      ],
      [
        "æµ",
        "ģ"
      ],
      [
        "ç½",
        "ĳ"
      ],
      [
        "æį",
        "®"
      ],
      [
        "çĶ",
        "±"
      ],
      [
        "æİ",
        "¥"
      ],
      [
        "ç²",
        "¾"
      ],
      [
        "è¿",
        "Ĳ"
      ],
      [
        "æł",
        "¡"
      ],
      [
        "ç»",
        "Ħ"
      ],
      [
        "éĹ",
        "®"
      ],
      [
        "æī",
        "ĭ"
      ],
      [
        "éĹ",
        "¨"
      ],
      [
        "è",
        "Į"
      ],
      [
        "åİ",
        "»"
      ],
      [
        "ä»",
        "¶"
      ],
      [
        "æł",
        "·"
      ],
      [
        "ä¹",
        "Ī"
      ],
      [
        "è½",
        "¦"
      ],
      [
        "å·",
        "±"
      ],
      [
        "è¢",
        "«"
      ],
      [
        "åĲ",
        "ĳ"
      ],
      [
        "çĻ",
        "½"
      ],
      [
        "ä¼",
        "ł"
      ],
      [
        "é",
        "ª"
      ],
      [
        "æ",
        "»"
      ],
      [
        "æĢ",
        "»"
      ],
      [
        "æĸ",
        "Ļ"
      ],
      [
        "é¢",
        "Ĩ"
      ],
      [
        "åİ",
        "Ł"
      ],
      [
        "æĬĢ",
        "æľ¯"
      ],
      [
        "çĲ",
        "ĥ"
      ],
      [
        "è",
        "¥"
      ],
      [
        "çº",
        "§"
      ],
      [
        "åı",
        "Ĺ"
      ],
      [
        "å·",
        "²"
      ],
      [
        "æ²",
        "¡"
      ],
      [
        "å¤",
        "ĩ"
      ],
      [
        "åħ",
        "±"
      ],
      [
        "è·",
        "¯"
      ],
      [
        "èĩª",
        "å·±"
      ],
      [
        "äº",
        "¤"
      ],
      [
        "åķ",
        "Ĩ"
      ],
      [
        "è¥",
        "¿"
      ],
      [
        "å½",
        "¢"
      ],
      [
        "çİ",
        "¯"
      ],
      [
        "æł",
        "¼"
      ],
      [
        "æµ",
        "·"
      ],
      [
        "å½",
        "±"
      ],
      [
        "åŀ",
        "ĭ"
      ],
      [
        "éĺ",
        "²"
      ],
      [
        "ç®¡",
        "çĲĨ"
      ],
      [
        "ä¸",
        "¤"
      ],
      [
        "çŁ",
        "¥"
      ],
      [
        "çľ",
        "ģ"
      ],
      [
        "æ",
        "£"
      ],
      [
        "åĽ½",
        "å®¶"
      ],
      [
        "é",
        "»"
      ],
      [
        "æľį",
        "åĬ¡"
      ],
      [
        "é",
        "©"
      ],
      [
        "åħ",
        "Ī"
      ],
      [
        "åı",
        "ĺ"
      ],
      [
        "è°",
        "ĥ"
      ],
      [
        "åį",
        "ķ"
      ],
      [
        "å°",
        "ĳ"
      ],
      [
        "è¿Ľ",
        "è¡Į"
      ],
      [
        "æİ",
        "¨"
      ],
      [
        "å",
        "Ļ"
      ],
      [
        "ä¼",
        "ĺ"
      ],
      [
        "ç±",
        "»"
      ],
      [
        "éĺ",
        "Ł"
      ],
      [
        "éĽ",
        "Ĩ"
      ],
      [
        "æĶ",
        "¹"
      ],
      [
        "èģ",
        "Ķ"
      ],
      [
        "ä¸",
        "ĩ"
      ],
      [
        "è",
        "İ"
      ],
      [
        "ä¹",
        "ł"
      ],
      [
        "æ",
        "¢"
      ],
      [
        "æ·",
        "±"
      ],
      [
        "èĩ",
        "³"
      ],
      [
        "ä¸",
        "ĸ"
      ],
      [
        "å¹",
        "¿"
      ],
      [
        "è",
        "Ļ"
      ],
      [
        "ç¤",
        "º"
      ],
      [
        "æĶ",
        "¶"
      ],
      [
        "å¸",
        "Ī"
      ],
      [
        "é£",
        "Ł"
      ],
      [
        "é",
        "Ĥ£"
      ],
      [
        "è¾",
        "ĥ"
      ],
      [
        "åı",
        "ª"
      ],
      [
        "æ",
        "®"
      ],
      [
        "äº§",
        "åĵģ"
      ],
      [
        "æĮ",
        "ĩ"
      ],
      [
        "æī",
        "į"
      ],
      [
        "ç¤¾",
        "ä¼ļ"
      ],
      [
        "å»º",
        "è®¾"
      ],
      [
        "æŀ",
        "Ħ"
      ],
      [
        "æĬ",
        "¥"
      ],
      [
        "æº",
        "Ĳ"
      ],
      [
        "çĸ",
        "Ĺ"
      ],
      [
        "æĶ",
        "¾"
      ],
      [
        "æĸ",
        "½"
      ],
      [
        "å±",
        "±"
      ],
      [
        "ä¹",
        "¦"
      ],
      [
        "åį",
        "Ĺ"
      ],
      [
        "åı",
        "ĸ"
      ],
      [
        "åŁ",
        "İ"
      ],
      [
        "å®",
        "Į"
      ],
      [
        "åĻ",
        "¨"
      ],
      [
        "ä¾",
        "Ľ"
      ],
      [
        "çĥ",
        "Ń"
      ],
      [
        "è®",
        "¤"
      ],
      [
        "èµ",
        "Ľ"
      ],
      [
        "åı",
        "£"
      ],
      [
        "éĢ",
        "ī"
      ],
      [
        "ä¸",
        "ľ"
      ],
      [
        "èĬ",
        "Ĥ"
      ],
      [
        "è¾",
        "¾"
      ],
      [
        "çº",
        "¿"
      ],
      [
        "æ³",
        "¨"
      ],
      [
        "æ",
        "¨"
      ],
      [
        "è®",
        "°"
      ],
      [
        "èĢ",
        "ģ"
      ],
      [
        "èĲ",
        "¥"
      ],
      [
        "åĽ",
        "Ľ"
      ],
      [
        "èĢ",
        "ĥ"
      ],
      [
        "å¸",
        "¦"
      ],
      [
        "æĪ",
        "ĺ"
      ],
      [
        "è¿",
        "ĳ"
      ],
      [
        "è®",
        "©"
      ],
      [
        "æ",
        "¼"
      ],
      [
        "åĮ",
        "Ĺ"
      ],
      [
        "ç¥",
        "ŀ"
      ],
      [
        "ä»",
        "·"
      ],
      [
        "ç¡",
        "®"
      ],
      [
        "å®",
        "¹"
      ],
      [
        "è£",
        "ħ"
      ],
      [
        "ç",
        "Ĭ"
      ],
      [
        "çķ",
        "Į"
      ],
      [
        "åĩ",
        "Ĩ"
      ],
      [
        "éĹ®",
        "é¢ĺ"
      ],
      [
        "æĿ",
        "¡"
      ],
      [
        "æķĻ",
        "èĤ²"
      ],
      [
        "å§",
        "Ķ"
      ],
      [
        "éĿ",
        "ŀ"
      ],
      [
        "åħ",
        "ī"
      ],
      [
        "åĪ",
        "«"
      ],
      [
        "æĬ",
        "¤"
      ],
      [
        "åı",
        "°"
      ],
      [
        "è",
        "ħ"
      ],
      [
        "è¯",
        "ģ"
      ],
      [
        "åĽ",
        "¢"
      ],
      [
        "åĨ",
        "³"
      ],
      [
        "å",
        "²"
      ],
      [
        "æ¯",
        "ı"
      ],
      [
        "ç´",
        "ł"
      ],
      [
        "ç",
        "ħ"
      ],
      [
        "çĽ",
        "´"
      ],
      [
        "åĬ",
        "Ł"
      ],
      [
        "å¢",
        "ĥ"
      ],
      [
        "æĢ",
        "Ŀ"
      ],
      [
        "æµ",
        "İ"
      ],
      [
        "æķ",
        "´"
      ],
      [
        "äº",
        "Ķ"
      ],
      [
        "æ²¡",
        "æľī"
      ],
      [
        "æī",
        "ĵ"
      ],
      [
        "å¥",
        "³"
      ],
      [
        "è",
        "±"
      ],
      [
        "æĺ",
        "ĵ"
      ],
      [
        "æŃ",
        "¥"
      ],
      [
        "ä½",
        "İ"
      ],
      [
        "ä¹",
        "ī"
      ],
      [
        "æĬ",
        "Ĭ"
      ],
      [
        "å",
        "Ķ"
      ],
      [
        "ç©",
        "º"
      ],
      [
        "å±",
        "Ģ"
      ],
      [
        "æĶ",
        "¯"
      ],
      [
        "æ¸",
        "ħ"
      ],
      [
        "20",
        "1"
      ],
      [
        "åħ",
        "»"
      ],
      [
        "åĽ",
        "ŀ"
      ],
      [
        "èģ",
        "Į"
      ],
      [
        "çľ",
        "Ł"
      ],
      [
        "ç©",
        "¶"
      ],
      [
        "è§",
        "Ĥ"
      ],
      [
        "åĬ",
        "ŀ"
      ],
      [
        "å",
        "ĭ"
      ],
      [
        "ç»",
        "Ļ"
      ],
      [
        "åĮ",
        "ħ"
      ],
      [
        "è§",
        "Ĩ"
      ],
      [
        "ä½¿",
        "çĶ¨"
      ],
      [
        "æĿ",
        "Ĳ"
      ],
      [
        "å®",
        "ĥ"
      ],
      [
        "æ¶",
        "Ī"
      ],
      [
        "çĶŁ",
        "äº§"
      ],
      [
        "æĬ",
        "ķ"
      ],
      [
        "éĻ",
        "ħ"
      ],
      [
        "éľĢ",
        "è¦ģ"
      ],
      [
        "å¼",
        "ķ"
      ],
      [
        "æĪ",
        "·"
      ],
      [
        "è´",
        "¹"
      ],
      [
        "æģ",
        "¯"
      ],
      [
        "èį",
        "¯"
      ],
      [
        "Ġ",
        ","
      ],
      [
        "å¤",
        "´"
      ],
      [
        "é",
        "¥"
      ],
      [
        "ç»ı",
        "æµİ"
      ],
      [
        "å¤",
        "į"
      ],
      [
        "æŁ",
        "¥"
      ],
      [
        "ç§",
        "¯"
      ],
      [
        "åĬ",
        "©"
      ],
      [
        "çİ",
        "ĩ"
      ],
      [
        "å¿",
        "«"
      ],
      [
        "æł",
        "¹"
      ],
      [
        "å¸Ĥ",
        "åľº"
      ],
      [
        "è",
        "¨"
      ],
      [
        "è¯",
        "¥"
      ],
      [
        "åı",
        "Ĥ"
      ],
      [
        "ç»",
        "´"
      ],
      [
        "éĢļ",
        "è¿ĩ"
      ],
      [
        "è®",
        "®"
      ],
      [
        "è¯",
        "Ĩ"
      ],
      [
        "è´",
        "£"
      ],
      [
        "éĢ",
        "Ł"
      ],
      [
        "å°±",
        "æĺ¯"
      ],
      [
        "ä»",
        "Ĭ"
      ],
      [
        "åĿ",
        "ļ"
      ],
      [
        "èĩ",
        "´"
      ],
      [
        "è§",
        "ģ"
      ],
      [
        "éĩį",
        "è¦ģ"
      ],
      [
        "å¿",
        "ħ"
      ],
      [
        "å¹",
        "²"
      ],
      [
        "åį",
        "ĩ"
      ],
      [
        "æĢ",
        "ģ"
      ],
      [
        "è®",
        "º"
      ],
      [
        "å¸",
        "ĥ"
      ],
      [
        "åĨ",
        "į"
      ],
      [
        "å®ī",
        "åħ¨"
      ],
      [
        "æ",
        "Ĥ£"
      ],
      [
        "ç",
        "ı"
      ],
      [
        "çĶŁ",
        "æ´»"
      ],
      [
        "å®",
        "¢"
      ],
      [
        "åį",
        "İ"
      ],
      [
        "çłĶ",
        "ç©¶"
      ],
      [
        "è",
        "ı"
      ],
      [
        "éª",
        "Į"
      ],
      [
        "æŀ",
        "ģ"
      ],
      [
        "æ",
        "Ĥ"
      ],
      [
        "åĨ",
        "µ"
      ],
      [
        "æĸ",
        "Ń"
      ],
      [
        "è½",
        "¬"
      ],
      [
        "åı",
        "į"
      ],
      [
        "æĸ",
        "¯"
      ],
      [
        "ä¸ĵ",
        "ä¸ļ"
      ],
      [
        "åİ",
        "Ĩ"
      ],
      [
        "æİ",
        "§"
      ],
      [
        "ç»",
        "Ń"
      ],
      [
        "åĳ",
        "½"
      ],
      [
        "ä¸»",
        "è¦ģ"
      ],
      [
        "æ",
        "ħ"
      ],
      [
        "è¶",
        "Ĭ"
      ],
      [
        "å",
        "Ħ"
      ],
      [
        "è¶",
        "³"
      ],
      [
        "èĬ",
        "±"
      ],
      [
        "é",
        "Ł"
      ],
      [
        "å¦Ĥ",
        "æŀľ"
      ],
      [
        "æ¸",
        "©"
      ],
      [
        "åģ",
        "¥"
      ],
      [
        "éĻ",
        "Ĳ"
      ],
      [
        "åĵ",
        "į"
      ],
      [
        "æĹ¶",
        "éĹ´"
      ],
      [
        "1",
        "0"
      ],
      [
        "å¾",
        "·"
      ],
      [
        "çĪ",
        "±"
      ],
      [
        "è¯",
        "Ŀ"
      ],
      [
        "æ",
        "¹"
      ],
      [
        "æ£",
        "Ģ"
      ],
      [
        "å",
        "¡"
      ],
      [
        "ä½",
        "ķ"
      ],
      [
        "è",
        "ĳ"
      ],
      [
        "å·",
        "ŀ"
      ],
      [
        "èĮ",
        "ĥ"
      ],
      [
        "æĿ",
        "ĥ"
      ],
      [
        "éĢ",
        "Ĥ"
      ],
      [
        "è¯",
        "ķ"
      ],
      [
        "ä¸",
        "Ķ"
      ],
      [
        "æ¸",
        "¸"
      ],
      [
        "åİ",
        "ĭ"
      ],
      [
        "ç",
        "¢"
      ],
      [
        "ç",
        "ĭ"
      ],
      [
        "ä»ĸ",
        "ä»¬"
      ],
      [
        "èİ",
        "·"
      ],
      [
        "åĨ",
        "Ľ"
      ],
      [
        "æ¨",
        "¡"
      ],
      [
        "çļĦ",
        "äºº"
      ],
      [
        "æİ",
        "Ĵ"
      ],
      [
        "åĨ",
        "ľ"
      ],
      [
        "åĢ",
        "¼"
      ],
      [
        "ç",
        "ª"
      ],
      [
        "éĩ",
        "ĩ"
      ],
      [
        "éļ",
        "¾"
      ],
      [
        "é¡¹",
        "çĽ®"
      ],
      [
        "æĸ¹",
        "éĿ¢"
      ],
      [
        "åĪ",
        "Ļ"
      ],
      [
        "è¶",
        "ħ"
      ],
      [
        "é¦",
        "ĸ"
      ],
      [
        "åŁ",
        "Ł"
      ],
      [
        "æ¡",
        "Ī"
      ],
      [
        "ä»",
        "Ģ"
      ],
      [
        "å·¥",
        "ç¨ĭ"
      ],
      [
        "åĬ",
        "¿"
      ],
      [
        "æľ",
        "ª"
      ],
      [
        "åĳ",
        "Ĭ"
      ],
      [
        "åº",
        "·"
      ],
      [
        "åı",
        "²"
      ],
      [
        "æĸĩ",
        "åĮĸ"
      ],
      [
        "å§",
        "ĭ"
      ],
      [
        "çĬ",
        "¶"
      ],
      [
        "äºº",
        "æ°ĳ"
      ],
      [
        "ç»",
        "ĩ"
      ],
      [
        "ç§",
        "°"
      ],
      [
        "è¡",
        "Ģ"
      ],
      [
        "è",
        "ŀ"
      ],
      [
        "ä¸",
        "¥"
      ],
      [
        "ç³»",
        "ç»Ł"
      ],
      [
        "æ²",
        "¹"
      ],
      [
        "åħ",
        "ĭ"
      ],
      [
        "åŃ",
        "ĺ"
      ],
      [
        "åĳ",
        "¨"
      ],
      [
        "âĢĿ",
        ","
      ],
      [
        "åı",
        "Ī"
      ],
      [
        "ä¼",
        "Ĺ"
      ],
      [
        "æĺ",
        "¾"
      ],
      [
        "åŃ¦",
        "çĶŁ"
      ],
      [
        "æ²»",
        "çĸĹ"
      ],
      [
        "è¦ģ",
        "æ±Ĥ"
      ],
      [
        "ä¸ĸ",
        "çķĮ"
      ],
      [
        "éħ",
        "į"
      ],
      [
        "åŃ",
        "Ĺ"
      ],
      [
        "éĻ",
        "¤"
      ],
      [
        "åħ·",
        "æľī"
      ],
      [
        "åĪ",
        "Ĵ"
      ],
      [
        "æ±",
        "Ł"
      ],
      [
        "æµ",
        "ĭ"
      ],
      [
        "é©",
        "¬"
      ],
      [
        "åĦ",
        "¿"
      ],
      [
        "ä¾",
        "¿"
      ],
      [
        "åı¯",
        "èĥ½"
      ],
      [
        "æıĲ",
        "ä¾Ľ"
      ],
      [
        "å½±",
        "åĵį"
      ],
      [
        "åŁ",
        "¹"
      ],
      [
        "çļ",
        "®"
      ],
      [
        "æĥħ",
        "åĨµ"
      ],
      [
        "æĪ",
        "¿"
      ],
      [
        "çİ¯",
        "å¢ĥ"
      ],
      [
        "åį",
        "ı"
      ],
      [
        "1",
        "9"
      ],
      [
        "åĢ",
        "Ļ"
      ],
      [
        "åĪ",
        "ĩ"
      ],
      [
        "è¡Į",
        "ä¸ļ"
      ],
      [
        "è¿Ļ",
        "ä¸ª"
      ],
      [
        "âĢ",
        "Ķ"
      ],
      [
        "å¥",
        "¹"
      ],
      [
        "è´¨",
        "éĩı"
      ],
      [
        "èī",
        "º"
      ],
      [
        "ä¹",
        "Ĳ"
      ],
      [
        "ä»Ģ",
        "ä¹Ī"
      ],
      [
        "åŃ¦",
        "ä¹ł"
      ],
      [
        "çĽ",
        "ĳ"
      ],
      [
        "ç»",
        "Ĩ"
      ],
      [
        "å¥½",
        "çļĦ"
      ],
      [
        "åĲĮ",
        "æĹ¶"
      ],
      [
        "èĲ",
        "½"
      ],
      [
        "éĿ",
        "Ĵ"
      ],
      [
        "ç«",
        "Ļ"
      ],
      [
        "çħ",
        "§"
      ],
      [
        "ç",
        "Į"
      ],
      [
        "åľ",
        "Ł"
      ],
      [
        "ç±",
        "³"
      ],
      [
        "æ´»",
        "åĬ¨"
      ],
      [
        "çģ",
        "«"
      ],
      [
        "çİ",
        "ĭ"
      ],
      [
        "çī",
        "ĩ"
      ],
      [
        "åĽł",
        "ä¸º"
      ],
      [
        "äº",
        "¬"
      ],
      [
        "çº",
        "¦"
      ],
      [
        "å±",
        "Ĥ"
      ],
      [
        "æľ",
        "Ľ"
      ],
      [
        "å¼",
        "ł"
      ],
      [
        "ãĢĤ",
        "âĢĿ"
      ],
      [
        "å£",
        "«"
      ],
      [
        "é",
        "¾"
      ],
      [
        "èĥ½",
        "åĬĽ"
      ],
      [
        "æ",
        "ļ"
      ],
      [
        "è®¾",
        "å¤ĩ"
      ],
      [
        "è®¾",
        "è®¡"
      ],
      [
        "æ",
        "ĳ"
      ],
      [
        "æīĢ",
        "ä»¥"
      ],
      [
        "å¤",
        "ª"
      ],
      [
        "å±",
        "ŀ"
      ],
      [
        "æ",
        "¥"
      ],
      [
        "çŁ",
        "³"
      ],
      [
        "æ",
        "Ĵ"
      ],
      [
        "äº§",
        "ä¸ļ"
      ],
      [
        "é¢",
        "Ħ"
      ],
      [
        "éĶ",
        "Ģ"
      ],
      [
        "æī",
        "¿"
      ],
      [
        "ç»Ħ",
        "ç»ĩ"
      ],
      [
        "å¤",
        "±"
      ],
      [
        "åį",
        "³"
      ],
      [
        "åĪĽ",
        "æĸ°"
      ],
      [
        "è±",
        "¡"
      ],
      [
        "çº",
        "¢"
      ],
      [
        "èµ",
        "°"
      ],
      [
        "å°",
        "Ķ"
      ],
      [
        "éĻ",
        "į"
      ],
      [
        "åĩ",
        "ł"
      ],
      [
        "åĸ",
        "Ħ"
      ],
      [
        "åº",
        "ľ"
      ],
      [
        "ä»¥",
        "åıĬ"
      ],
      [
        "æ®",
        "µ"
      ],
      [
        "åħ",
        "ħ"
      ],
      [
        "çĽ",
        "Ĭ"
      ],
      [
        "æıĲ",
        "é«ĺ"
      ],
      [
        "æĺ¯",
        "ä¸Ģ"
      ],
      [
        "ç½",
        "®"
      ],
      [
        "éļ",
        "ı"
      ],
      [
        "ä¿¡",
        "æģ¯"
      ],
      [
        "æ¼",
        "Ķ"
      ],
      [
        "ç¦",
        "»"
      ],
      [
        "ä¾",
        "Ŀ"
      ],
      [
        "æ»",
        "¡"
      ],
      [
        "æĤ£",
        "èĢħ"
      ],
      [
        "çĻ",
        "¾"
      ],
      [
        "æł",
        "¸"
      ],
      [
        "èŀ",
        "į"
      ],
      [
        "å®",
        "¤"
      ],
      [
        "åħ",
        "į"
      ],
      [
        "ä»",
        "ħ"
      ],
      [
        "èī",
        "¯"
      ],
      [
        "åĪ",
        "Ĺ"
      ],
      [
        "å",
        "ĥ"
      ],
      [
        "ä½ľ",
        "ä¸º"
      ],
      [
        "æ",
        "ĵ"
      ],
      [
        "æĿ",
        "ĳ"
      ],
      [
        "æĿ",
        "¿"
      ],
      [
        "å¯",
        "Į"
      ],
      [
        "çī",
        "Į"
      ],
      [
        "çļĦ",
        "ä¸Ģ"
      ],
      [
        "å",
        "¨"
      ],
      [
        "éĿ",
        "©"
      ],
      [
        "åĩ",
        "ı"
      ],
      [
        "ç²¾",
        "ç¥ŀ"
      ],
      [
        "æŀ",
        "Ĺ"
      ],
      [
        "è´",
        "Ł"
      ],
      [
        "å",
        "ł"
      ],
      [
        "å¾",
        "Ģ"
      ],
      [
        "é",
        "Ĥ"
      ],
      [
        "æ",
        "¿"
      ],
      [
        "æĻ",
        "¯"
      ],
      [
        "éĻ",
        "©"
      ],
      [
        "å¤§",
        "çļĦ"
      ],
      [
        "åŃ¦",
        "æł¡"
      ],
      [
        "è¯",
        "Ħ"
      ],
      [
        "ä¾",
        "ĭ"
      ],
      [
        "ä¸į",
        "åĲĮ"
      ],
      [
        "æĻ",
        "º"
      ],
      [
        "å¤",
        "Ł"
      ],
      [
        "çŃ",
        "ĸ"
      ],
      [
        "äºº",
        "åĳĺ"
      ],
      [
        "äº",
        "ī"
      ],
      [
        "ä½ľ",
        "çĶ¨"
      ],
      [
        "ä¸Ń",
        "å¿ĥ"
      ],
      [
        "åŃ",
        "©"
      ],
      [
        "ä¸Ń",
        "çļĦ"
      ],
      [
        "äº",
        "¿"
      ],
      [
        "æĪĲ",
        "ä¸º"
      ],
      [
        "è¿Ļ",
        "æł·"
      ],
      [
        "è¨",
        "Ģ"
      ],
      [
        "äºº",
        "çļĦ"
      ],
      [
        "éĺ",
        "³"
      ],
      [
        "äº",
        "ļ"
      ],
      [
        "å¿",
        "Ĺ"
      ],
      [
        "åĽ",
        "´"
      ],
      [
        "å¾Ī",
        "å¤ļ"
      ],
      [
        "ä¿",
        "®"
      ],
      [
        "å¿",
        "µ"
      ],
      [
        "åİ",
        "¿"
      ],
      [
        "ç¾",
        "¤"
      ],
      [
        "åĽ½",
        "éĻħ"
      ],
      [
        "è®",
        "¸"
      ],
      [
        "æĶ¿",
        "åºľ"
      ],
      [
        "æĮ",
        "ī"
      ],
      [
        "åĩº",
        "çİ°"
      ],
      [
        "åı",
        "·"
      ],
      [
        "æ",
        "Ĳ"
      ],
      [
        "åı",
        "ĭ"
      ],
      [
        "å¾",
        "ĭ"
      ],
      [
        "ä½",
        "ı"
      ],
      [
        "æĭ",
        "©"
      ],
      [
        "ä¹Ł",
        "æĺ¯"
      ],
      [
        "å¤§",
        "åŃ¦"
      ],
      [
        "åĲ",
        "«"
      ],
      [
        "åĽ",
        "Ń"
      ],
      [
        "éĿŀ",
        "å¸¸"
      ],
      [
        "è¿",
        "ŀ"
      ],
      [
        "åĽ",
        "¾"
      ],
      [
        "å®ŀ",
        "çİ°"
      ],
      [
        "åĲ",
        "ĥ"
      ],
      [
        "çĹ",
        "ĩ"
      ],
      [
        "ç»",
        "Ī"
      ],
      [
        "å®",
        "³"
      ],
      [
        "æĹ",
        "©"
      ],
      [
        "ç¬¬",
        "ä¸Ģ"
      ],
      [
        "æ²",
        "³"
      ],
      [
        "ç®",
        "Ĺ"
      ],
      [
        "âĢĿ",
        "ãĢĤ"
      ],
      [
        "è",
        "ª"
      ],
      [
        "ä»",
        "½"
      ],
      [
        "ä¸Ģ",
        "å®ļ"
      ],
      [
        "è¿Ļ",
        "äºĽ"
      ],
      [
        "äº",
        "Ĵ"
      ],
      [
        "ä¸Ģ",
        "äºĽ"
      ],
      [
        "çĽ¸",
        "åħ³"
      ],
      [
        "åħ¨",
        "åĽ½"
      ],
      [
        "åı",
        "Į"
      ],
      [
        "éĢī",
        "æĭ©"
      ],
      [
        "å·²",
        "ç»ı"
      ],
      [
        "ç§ĳ",
        "åŃ¦"
      ],
      [
        "å¯",
        "Ĩ"
      ],
      [
        "è¯",
        "Ń"
      ],
      [
        "æĭ",
        "ī"
      ],
      [
        "å¯¹",
        "äºİ"
      ],
      [
        "åģ¥",
        "åº·"
      ],
      [
        "è¿",
        "ľ"
      ],
      [
        "æĿĲ",
        "æĸĻ"
      ],
      [
        "è§",
        "Ĵ"
      ],
      [
        "ç§ĳ",
        "æĬĢ"
      ],
      [
        "åĲĪ",
        "ä½ľ"
      ],
      [
        "æ¿",
        "Ģ"
      ],
      [
        "åĿ",
        "ĩ"
      ],
      [
        "èĩªå·±",
        "çļĦ"
      ],
      [
        "è§",
        "ī"
      ],
      [
        "åħ",
        "´"
      ],
      [
        "èĪ",
        "¬"
      ],
      [
        "èĤ",
        "¡"
      ],
      [
        "æĻ",
        "®"
      ],
      [
        "é»",
        "Ħ"
      ],
      [
        "è¿ĩ",
        "ç¨ĭ"
      ],
      [
        "è®",
        "²"
      ],
      [
        "æŁ",
        "ĵ"
      ],
      [
        "Ġ",
        "ãĢĤ"
      ],
      [
        "åħ¶",
        "ä»ĸ"
      ],
      [
        "æĹ¶",
        "åĢĻ"
      ],
      [
        "ä¸į",
        "æĸŃ"
      ],
      [
        "å¤Ħ",
        "çĲĨ"
      ],
      [
        "æĹ",
        "ı"
      ],
      [
        "éĴ",
        "¢"
      ],
      [
        "å",
        "Ĥ"
      ],
      [
        "æł¹",
        "æį®"
      ],
      [
        "è¯",
        "·"
      ],
      [
        "åĽł",
        "æŃ¤"
      ],
      [
        "ç",
        "Ĩ"
      ],
      [
        "éħ",
        "Ĵ"
      ],
      [
        "é¡",
        "»"
      ],
      [
        "æĬķ",
        "èµĦ"
      ],
      [
        "ä¸į",
        "æĺ¯"
      ],
      [
        "åĶ",
        "®"
      ],
      [
        "åı",
        "¤"
      ],
      [
        "ä½Ĩ",
        "æĺ¯"
      ],
      [
        "çĽ®",
        "åīį"
      ],
      [
        "å¾",
        "®"
      ],
      [
        "è´",
        "¢"
      ],
      [
        "çŃ",
        "ĳ"
      ],
      [
        "åĲ",
        "¸"
      ],
      [
        "ä»¥",
        "ä¸Ĭ"
      ],
      [
        "åŁİ",
        "å¸Ĥ"
      ],
      [
        "ä¸į",
        "èĥ½"
      ],
      [
        "åıĳ",
        "çĶŁ"
      ],
      [
        "èĭ",
        "±"
      ],
      [
        "æķ",
        "ħ"
      ],
      [
        "å",
        "©"
      ],
      [
        "éĥ¨",
        "éĹ¨"
      ],
      [
        "æłĩ",
        "åĩĨ"
      ],
      [
        "åĪ°",
        "äºĨ"
      ],
      [
        "1",
        "2"
      ],
      [
        "è½",
        "»"
      ],
      [
        "åĪ",
        "Ŀ"
      ],
      [
        "è",
        "Ń"
      ],
      [
        "ä¸",
        "¾"
      ],
      [
        "åŁº",
        "ç¡"
      ],
      [
        "çľ",
        "¼"
      ],
      [
        "åĥ",
        "ı"
      ],
      [
        "åŁºç¡",
        "Ģ"
      ],
      [
        "æī",
        "¹"
      ],
      [
        "æĸ¹",
        "å¼ı"
      ],
      [
        "ç¦",
        "ı"
      ],
      [
        "ç¨",
        "³"
      ],
      [
        "éŁ",
        "³"
      ],
      [
        "åįķ",
        "ä½į"
      ],
      [
        "åŃ©",
        "åŃĲ"
      ],
      [
        "è¯",
        "¾"
      ],
      [
        "è",
        "Ĩ"
      ],
      [
        "è®",
        "Ń"
      ],
      [
        "æ",
        "¤"
      ],
      [
        "çĸ",
        "«"
      ],
      [
        "éħ",
        "¸"
      ],
      [
        "æĿ",
        "İ"
      ],
      [
        "æŃ",
        "¢"
      ],
      [
        "éĥ¨",
        "åĪĨ"
      ],
      [
        "å±",
        "ħ"
      ],
      [
        "è¾",
        "¹"
      ],
      [
        "éĵ",
        "¶"
      ],
      [
        "å¤§",
        "å®¶"
      ],
      [
        "åºĶ",
        "çĶ¨"
      ],
      [
        "è¡¨",
        "ç¤º"
      ],
      [
        "åī",
        "¯"
      ],
      [
        "éĵ",
        "ģ"
      ],
      [
        "ä¸»",
        "ä¹ī"
      ],
      [
        "åŃ",
        "£"
      ],
      [
        "é¦",
        "Ļ"
      ],
      [
        "æĬ",
        "Ĺ"
      ],
      [
        "ç",
        "ĵ"
      ],
      [
        "åĮ»",
        "éĻ¢"
      ],
      [
        "æľ",
        "¨"
      ],
      [
        "çĶ",
        "·"
      ],
      [
        "åħ¶",
        "ä¸Ń"
      ],
      [
        "20",
        "0"
      ],
      [
        "çº",
        "ª"
      ],
      [
        "æĭ",
        "¬"
      ],
      [
        "å°",
        "½"
      ],
      [
        "åĳ",
        "³"
      ],
      [
        "çķ",
        "¥"
      ],
      [
        "ä¼",
        "¤"
      ],
      [
        "åİĨ",
        "åı²"
      ],
      [
        "æķ°",
        "æį®"
      ],
      [
        "èģ",
        "ļ"
      ],
      [
        "åİ",
        "Ĥ"
      ],
      [
        "ä¸Ģ",
        "èĪ¬"
      ],
      [
        "èĥ½",
        "å¤Ł"
      ],
      [
        "åº",
        "ķ"
      ],
      [
        "éļ",
        "ľ"
      ],
      [
        "çª",
        "ģ"
      ],
      [
        "åħ",
        "«"
      ],
      [
        "ç",
        "ĩ"
      ],
      [
        "éĥ½",
        "æĺ¯"
      ],
      [
        "å£",
        "°"
      ],
      [
        "çļĦ",
        "æĺ¯"
      ],
      [
        "å®",
        "¡"
      ],
      [
        "ç®",
        "Ģ"
      ],
      [
        "æ¬",
        "¾"
      ],
      [
        "çı",
        "Ń"
      ],
      [
        "åį",
        "«"
      ],
      [
        "è¾",
        "ĵ"
      ],
      [
        "å¥",
        "ĸ"
      ],
      [
        "æĭ",
        "ħ"
      ],
      [
        "çĻ",
        "ľ"
      ],
      [
        "å»º",
        "çŃĳ"
      ],
      [
        "åī",
        "Ĥ"
      ],
      [
        "åħ¨",
        "éĿ¢"
      ],
      [
        "æĸ¹",
        "æ³ķ"
      ],
      [
        "çĻľ",
        "é£İ"
      ],
      [
        "å·¥",
        "ä¸ļ"
      ],
      [
        "çĻ½",
        "çĻľé£İ"
      ],
      [
        "1",
        "1"
      ],
      [
        "å®",
        "Ŀ"
      ],
      [
        "å¼Ģ",
        "å§ĭ"
      ],
      [
        "ç",
        "£"
      ],
      [
        "å¼Ģ",
        "å±ķ"
      ],
      [
        "çł",
        "´"
      ],
      [
        "æ",
        "½"
      ],
      [
        "ä»",
        "ĭ"
      ],
      [
        "å®",
        "ĺ"
      ],
      [
        "é",
        "²"
      ],
      [
        "æľī",
        "éĻĲ"
      ],
      [
        "åį",
        "Ĭ"
      ],
      [
        "è¿Ļ",
        "ç§į"
      ],
      [
        ":",
        "âĢľ"
      ],
      [
        "ä¿",
        "ĥ"
      ],
      [
        "å®",
        "£"
      ],
      [
        "åĮħ",
        "æĭ¬"
      ],
      [
        "æ±",
        "½"
      ],
      [
        "åĿļ",
        "æĮģ"
      ],
      [
        "æ¶",
        "²"
      ],
      [
        "åĬŁ",
        "èĥ½"
      ],
      [
        "èµĦ",
        "æºĲ"
      ],
      [
        "Ġ",
        "ãĢģ"
      ],
      [
        "è¡",
        "¥"
      ],
      [
        "åĸ",
        "ľ"
      ],
      [
        "äº",
        "²"
      ],
      [
        "æĪĸ",
        "èĢħ"
      ],
      [
        "å¸",
        "Į"
      ],
      [
        "æ¯",
        "Ĵ"
      ],
      [
        "æ±",
        "¡"
      ],
      [
        "é¾",
        "Ļ"
      ],
      [
        "éĽĨ",
        "åĽ¢"
      ],
      [
        "å¿ħ",
        "é¡»"
      ],
      [
        "èİ·",
        "å¾Ĺ"
      ],
      [
        "è§Ħ",
        "å®ļ"
      ],
      [
        "ç§¯",
        "æŀģ"
      ],
      [
        "æĺ",
        "¥"
      ],
      [
        "ç¼",
        "º"
      ],
      [
        "åľ°",
        "åĮº"
      ],
      [
        "æĺ",
        "Ł"
      ],
      [
        "é",
        "Ĩ"
      ],
      [
        "é¢Ĩ",
        "å¯¼"
      ],
      [
        "åĨ",
        "·"
      ],
      [
        "çĶ±",
        "äºİ"
      ],
      [
        "ä¿Ŀ",
        "æĬ¤"
      ],
      [
        "æĽ",
        "¾"
      ],
      [
        "åį",
        "°"
      ],
      [
        "æ°´",
        "å¹³"
      ],
      [
        "æĪĳ",
        "åĽ½"
      ],
      [
        "è",
        "Ĺ"
      ],
      [
        "åį",
        "´"
      ],
      [
        "ä»£",
        "è¡¨"
      ],
      [
        "ç½",
        "Ĺ"
      ],
      [
        "æľº",
        "æŀĦ"
      ],
      [
        "åħ",
        "Ń"
      ],
      [
        "åį",
        "ļ"
      ],
      [
        "ç",
        "¿"
      ],
      [
        "æĹ",
        "ħ"
      ],
      [
        "è",
        "Ĵ"
      ],
      [
        "æī",
        "§"
      ],
      [
        "ä¸",
        "´"
      ],
      [
        "é¢Ĩ",
        "åŁŁ"
      ],
      [
        "ç»ĵ",
        "æŀĦ"
      ],
      [
        "çİ°",
        "åľ¨"
      ],
      [
        "åĬł",
        "å¼º"
      ],
      [
        "åĮĹ",
        "äº¬"
      ],
      [
        "çķ",
        "Ļ"
      ],
      [
        "æ³¨",
        "æĦı"
      ],
      [
        "çĶ",
        "»"
      ],
      [
        "ç¾İ",
        "åĽ½"
      ],
      [
        "ç»",
        "§"
      ],
      [
        "æŀ",
        "Ĳ"
      ],
      [
        "æıĲ",
        "åįĩ"
      ],
      [
        "ä¸Ģ",
        "æŃ¥"
      ],
      [
        "çĭ",
        "¬"
      ],
      [
        "ä½",
        "Ļ"
      ],
      [
        "ç",
        "¯"
      ],
      [
        "æ¯Ķ",
        "è¾ĥ"
      ],
      [
        "åī",
        "§"
      ],
      [
        "3",
        "0"
      ],
      [
        "éĢ",
        "ģ"
      ],
      [
        "å¢ŀ",
        "éķ¿"
      ],
      [
        "å·",
        "®"
      ],
      [
        "å¸",
        "®"
      ],
      [
        "20",
        "2"
      ],
      [
        "åı",
        "¦"
      ],
      [
        "çĸ",
        "¾"
      ],
      [
        "å·",
        "´"
      ],
      [
        "ç´",
        "§"
      ],
      [
        "æĹ¶",
        "ä»£"
      ],
      [
        "åĽ",
        "º"
      ],
      [
        "å¤",
        "®"
      ],
      [
        "é",
        "º"
      ],
      [
        "1",
        "5"
      ],
      [
        "å¾",
        "ģ"
      ],
      [
        "æİ§",
        "åĪ¶"
      ],
      [
        "äºĨ",
        "è§£"
      ],
      [
        "ç¨",
        "İ"
      ],
      [
        "é»",
        "ĳ"
      ],
      [
        "è´£",
        "ä»»"
      ],
      [
        "èĳ",
        "Ĺ"
      ],
      [
        "è´",
        "Ń"
      ],
      [
        "å¢ŀ",
        "åĬł"
      ],
      [
        "åĬ",
        "³"
      ],
      [
        "åį",
        "ł"
      ],
      [
        "ç»",
        "¼"
      ],
      [
        "æį",
        "Ł"
      ],
      [
        "äº",
        "ĳ"
      ],
      [
        "ä¸",
        "°"
      ],
      [
        "ä¹",
        "¡"
      ],
      [
        "åŁº",
        "æľ¬"
      ],
      [
        "å¹³",
        "åı°"
      ],
      [
        "æŃ",
        "¦"
      ],
      [
        "ä¸ª",
        "äºº"
      ],
      [
        "ç¬¬",
        "äºĮ"
      ],
      [
        "åį",
        "ĥ"
      ],
      [
        "å½¢",
        "æĪĲ"
      ],
      [
        "æĢĿ",
        "æĥ³"
      ],
      [
        "åĪ",
        "»"
      ],
      [
        "ç»",
        "¿"
      ],
      [
        "å¾",
        "ħ"
      ],
      [
        "çĤ",
        "º"
      ],
      [
        "å®¢",
        "æĪ·"
      ],
      [
        "ç»",
        "ľ"
      ],
      [
        "æ¹",
        "ĸ"
      ],
      [
        "çĤ",
        "İ"
      ],
      [
        "çİ°",
        "ä»£"
      ],
      [
        "é",
        "¸"
      ],
      [
        "å®Į",
        "æĪĲ"
      ],
      [
        "æķĻ",
        "åŃ¦"
      ],
      [
        "åĵģ",
        "çīĮ"
      ],
      [
        "è¿ĺ",
        "æĺ¯"
      ],
      [
        "æĶ¹",
        "éĿ©"
      ],
      [
        "å¹´",
        "çļĦ"
      ],
      [
        "äºº",
        "æīį"
      ],
      [
        "å¼",
        "Ĥ"
      ],
      [
        "æĶ¿",
        "æ²»"
      ],
      [
        "åħ³",
        "ç³»"
      ],
      [
        "æ¬",
        "¢"
      ],
      [
        "æ",
        "¦"
      ],
      [
        "çº",
        "³"
      ],
      [
        "åŃ¦",
        "éĻ¢"
      ],
      [
        "é¥",
        "®"
      ],
      [
        "åĨħ",
        "å®¹"
      ],
      [
        "ä¸į",
        "ä¼ļ"
      ],
      [
        "æľī",
        "æķĪ"
      ],
      [
        "çŁ",
        "Ń"
      ],
      [
        "æĶ¿",
        "çŃĸ"
      ],
      [
        "è§£",
        "åĨ³"
      ],
      [
        "èĢĮ",
        "ä¸Ķ"
      ],
      [
        "å¯¼",
        "èĩ´"
      ],
      [
        "é",
        "¼"
      ],
      [
        "æŁ",
        "Ĳ"
      ],
      [
        "åı",
        "¥"
      ],
      [
        "åıĳ",
        "çİ°"
      ],
      [
        "ç«",
        "ŀ"
      ],
      [
        "æľīéĻĲ",
        "åħ¬åı¸"
      ],
      [
        "å¯",
        "Ł"
      ],
      [
        "åĽ½",
        "åĨħ"
      ],
      [
        "çĶ",
        "³"
      ],
      [
        "éķ",
        "ĩ"
      ],
      [
        "åĪĨ",
        "æŀĲ"
      ],
      [
        "æ¸",
        "¯"
      ],
      [
        "éĤ£",
        "ä¹Ī"
      ],
      [
        "éľĢ",
        "æ±Ĥ"
      ],
      [
        "èĢ",
        "Ĳ"
      ],
      [
        "åĩ",
        "»"
      ],
      [
        "æ¯",
        "į"
      ],
      [
        "æĸ°",
        "çļĦ"
      ],
      [
        "è®¤",
        "ä¸º"
      ],
      [
        "åĪ¶",
        "éĢł"
      ],
      [
        "äº§",
        "çĶŁ"
      ],
      [
        "ä¸Ĭ",
        "çļĦ"
      ],
      [
        "æī",
        "¾"
      ],
      [
        "åº",
        "Ĺ"
      ],
      [
        "èĥ",
        "ľ"
      ],
      [
        "éģ",
        "¿"
      ],
      [
        "æł",
        "ĳ"
      ],
      [
        "é¢",
        "Ŀ"
      ],
      [
        "æİ¨",
        "è¿Ľ"
      ],
      [
        "åĲĦ",
        "ç§į"
      ],
      [
        "åį",
        "¡"
      ],
      [
        "æĮ",
        "¥"
      ],
      [
        "æŃ",
        "»"
      ],
      [
        "èĮ",
        "¶"
      ],
      [
        "ä½ĵ",
        "ç³»"
      ],
      [
        "åĪ©",
        "çĶ¨"
      ],
      [
        "åĲ",
        "¦"
      ],
      [
        "ç»ı",
        "èĲ¥"
      ],
      [
        "æĽ´",
        "åĬł"
      ],
      [
        "å¸Į",
        "æľĽ"
      ],
      [
        "èĻ",
        "½"
      ],
      [
        "ä¸º",
        "äºĨ"
      ],
      [
        "æľī",
        "åħ³"
      ],
      [
        "æ¢",
        "¦"
      ],
      [
        "çĹ",
        "Ľ"
      ],
      [
        "åĨ",
        "ł"
      ],
      [
        "éĩį",
        "çĤ¹"
      ],
      [
        ")",
        ","
      ],
      [
        "åĨ",
        "Ļ"
      ],
      [
        "ç»¼",
        "åĲĪ"
      ],
      [
        "ç§",
        "»"
      ],
      [
        "åĪ¶",
        "åº¦"
      ],
      [
        "è¿Ļ",
        "ä¸Ģ"
      ],
      [
        "å²",
        "ģ"
      ],
      [
        "æ³",
        "¢"
      ],
      [
        "ä¼ļ",
        "è®®"
      ],
      [
        "è´",
        "§"
      ],
      [
        "éĢł",
        "æĪĲ"
      ],
      [
        "èĩª",
        "çĦ¶"
      ],
      [
        "åħļ",
        "çļĦ"
      ],
      [
        "æİ¨",
        "åĬ¨"
      ],
      [
        "çĽ®",
        "æłĩ"
      ],
      [
        "å°",
        "Ħ"
      ],
      [
        "å®ŀ",
        "æĸ½"
      ],
      [
        ",",
        "âĢľ"
      ],
      [
        "ä¸Ń",
        "å¤®"
      ],
      [
        "æĿ¥",
        "çļĦ"
      ],
      [
        "ä»",
        "¤"
      ],
      [
        "ä¹¦",
        "è®°"
      ],
      [
        "çĶ¨",
        "äºİ"
      ],
      [
        "æ±",
        "ī"
      ],
      [
        "æľ",
        "ĥ"
      ],
      [
        "å®¹",
        "æĺĵ"
      ],
      [
        "åħ",
        "°"
      ],
      [
        "ç»",
        "Ŀ"
      ],
      [
        "ç¼",
        "ĸ"
      ],
      [
        "èĪ",
        "ª"
      ],
      [
        "æį",
        "¢"
      ],
      [
        "åŃĺ",
        "åľ¨"
      ],
      [
        "æĸ",
        "Ĺ"
      ],
      [
        "éĺ",
        "¿"
      ],
      [
        "åº",
        "§"
      ],
      [
        "åį",
        "±"
      ],
      [
        "æĶ¯",
        "æĮģ"
      ],
      [
        "å½",
        "ķ"
      ],
      [
        "ç½ĳ",
        "ç»ľ"
      ],
      [
        "å¼Ģ",
        "åıĳ"
      ],
      [
        "çŁ¥",
        "è¯Ĩ"
      ],
      [
        "çī¹",
        "èī²"
      ],
      [
        "éĩĩ",
        "çĶ¨"
      ],
      [
        "éĴ",
        "Ł"
      ],
      [
        "ç«",
        "¯"
      ],
      [
        "ä¹ĭ",
        "åĲİ"
      ],
      [
        "ç§",
        "Ģ"
      ],
      [
        "æ¬",
        "§"
      ],
      [
        "æĦ",
        "¿"
      ],
      [
        "æĭ",
        "¥"
      ],
      [
        "ä¼ł",
        "ç»Ł"
      ],
      [
        "æ°",
        "§"
      ],
      [
        "ç«",
        "ł"
      ],
      [
        "çļĦ",
        "æĹ¶åĢĻ"
      ],
      [
        "éģ",
        "ĩ"
      ],
      [
        "æ±½",
        "è½¦"
      ],
      [
        "çī",
        "Ľ"
      ],
      [
        "èĭ",
        "ı"
      ],
      [
        "çŁ¥",
        "éģĵ"
      ],
      [
        "æīĢ",
        "æľī"
      ],
      [
        "çĸ¾",
        "çĹħ"
      ],
      [
        "æ¤",
        "į"
      ],
      [
        "åĲ",
        "¬"
      ],
      [
        "äºĨ",
        "ä¸Ģ"
      ],
      [
        "ä¹",
        "Ŀ"
      ],
      [
        "æķĪ",
        "æŀľ"
      ],
      [
        "çĮ",
        "®"
      ],
      [
        "ä¸į",
        "ä»ħ"
      ],
      [
        "èı",
        "ľ"
      ],
      [
        "å¦Ĥ",
        "ä½ķ"
      ],
      [
        "çī¹",
        "åĪ«"
      ],
      [
        "è¯",
        "»"
      ],
      [
        "æĿ¡",
        "ä»¶"
      ],
      [
        "æĴ",
        "Ń"
      ],
      [
        "å®",
        "Ī"
      ],
      [
        "ä¸ļ",
        "åĬ¡"
      ],
      [
        "ä¿Ŀ",
        "æĮģ"
      ],
      [
        "åĵ",
        "ª"
      ],
      [
        "åºĶ",
        "è¯¥"
      ],
      [
        "åĬ",
        "ª"
      ],
      [
        "æ¶Ī",
        "è´¹"
      ],
      [
        "å»º",
        "ç«ĭ"
      ],
      [
        "è",
        "Ľ"
      ],
      [
        "æĤ",
        "¨"
      ],
      [
        "é",
        "ĸ"
      ],
      [
        "çī",
        "Ī"
      ],
      [
        "æ´",
        "Ĺ"
      ],
      [
        "åº",
        "Ń"
      ],
      [
        "Â",
        "·"
      ],
      [
        "è´Ł",
        "è´£"
      ],
      [
        "åľ°",
        "æĸ¹"
      ],
      [
        "ç»ĵ",
        "åĲĪ"
      ],
      [
        "æ",
        "ĩ"
      ],
      [
        "å±",
        "Ĭ"
      ],
      [
        "éĢ",
        "Ĳ"
      ],
      [
        "è¿Ľ",
        "ä¸ĢæŃ¥"
      ],
      [
        "é¢",
        "ĳ"
      ],
      [
        "è¾¾",
        "åĪ°"
      ],
      [
        "èį",
        "ī"
      ],
      [
        "èŃ",
        "¦"
      ],
      [
        "å®ŀ",
        "éĻħ"
      ],
      [
        "æĢ",
        "¥"
      ],
      [
        "çĶ",
        "ļ"
      ],
      [
        "èĤ",
        "ī"
      ],
      [
        "æĢ",
        "İ"
      ],
      [
        "èģĮ",
        "ä¸ļ"
      ],
      [
        "æĪ",
        "ı"
      ],
      [
        "ç²",
        "ī"
      ],
      [
        "åĽ",
        "°"
      ],
      [
        "1",
        "00"
      ],
      [
        "å",
        "³"
      ],
      [
        "âĢĶ",
        "âĢĶ"
      ],
      [
        "æĵ",
        "į"
      ],
      [
        "æĭ",
        "Ľ"
      ],
      [
        "çĿ",
        "£"
      ],
      [
        "èº«",
        "ä½ĵ"
      ],
      [
        "åº",
        "ı"
      ],
      [
        "ä»",
        "į"
      ],
      [
        "åĬª",
        "åĬĽ"
      ],
      [
        "æĿ¥",
        "è¯´"
      ],
      [
        "å¤",
        "«"
      ],
      [
        "è¿",
        "°"
      ],
      [
        "ä»·",
        "æł¼"
      ],
      [
        "ãĢ",
        "Į"
      ],
      [
        "åº",
        "Ĭ"
      ],
      [
        "è·",
        "µ"
      ],
      [
        "å·",
        "¦"
      ],
      [
        "èīº",
        "æľ¯"
      ],
      [
        "è¿ĺ",
        "æľī"
      ],
      [
        "æıĲ",
        "åĩº"
      ],
      [
        "è¿Ļ",
        "æĺ¯"
      ],
      [
        "åıĸ",
        "å¾Ĺ"
      ],
      [
        "ä¹",
        "ħ"
      ],
      [
        "ä»",
        "ª"
      ],
      [
        "å½",
        "©"
      ],
      [
        "è½",
        "®"
      ],
      [
        "æİ",
        "Ī"
      ],
      [
        "äº¿",
        "åħĥ"
      ],
      [
        "ãĢ",
        "į"
      ],
      [
        "ä¸",
        "ĥ"
      ],
      [
        "ä¸į",
        "è¦ģ"
      ],
      [
        "ä¸Ģ",
        "èµ·"
      ],
      [
        "è",
        "²"
      ],
      [
        "åŁ¹",
        "åħ»"
      ],
      [
        "æĮģ",
        "ç»Ń"
      ],
      [
        "æĻ",
        "Ĥ"
      ],
      [
        "æĪĺ",
        "çķ¥"
      ],
      [
        "æİ",
        "ª"
      ],
      [
        "åĩ",
        "Ģ"
      ],
      [
        "æ´",
        "²"
      ],
      [
        "åĳ",
        "¢"
      ],
      [
        "ä»·",
        "åĢ¼"
      ],
      [
        "5",
        "0"
      ],
      [
        "åı",
        "³"
      ],
      [
        "å",
        "ª"
      ],
      [
        "ç»",
        "į"
      ],
      [
        "æ£Ģ",
        "æŁ¥"
      ],
      [
        "ä¿ĥ",
        "è¿Ľ"
      ],
      [
        "è¿",
        "½"
      ],
      [
        "éĺ",
        "¶"
      ],
      [
        "ä¼ĺ",
        "åĬ¿"
      ],
      [
        "åħ¨",
        "çĲĥ"
      ],
      [
        "åİŁ",
        "åĽł"
      ],
      [
        "ç",
        "µ"
      ],
      [
        "%",
        ","
      ],
      [
        "æ¢",
        "°"
      ],
      [
        "ä¹ĭ",
        "ä¸Ģ"
      ],
      [
        "éĿ",
        "ł"
      ],
      [
        "éĴ",
        "Ī"
      ],
      [
        "é",
        "½"
      ],
      [
        "é£Ł",
        "åĵģ"
      ],
      [
        "åģ",
        "ľ"
      ],
      [
        "ä¹",
        "°"
      ],
      [
        "æĶ",
        "»"
      ],
      [
        "é¡",
        "º"
      ],
      [
        "é£",
        "ŀ"
      ],
      [
        "éĶĢ",
        "åĶ®"
      ],
      [
        "ä¸Ĭ",
        "æµ·"
      ],
      [
        "é¦",
        "Ĩ"
      ],
      [
        "è½",
        "¯"
      ],
      [
        "çĶ",
        "²"
      ],
      [
        "çĽ´",
        "æİ¥"
      ],
      [
        "è",
        "ĸ"
      ],
      [
        "è¿Ĳ",
        "åĬ¨"
      ],
      [
        "é",
        "¤"
      ],
      [
        "ä¿Ŀ",
        "éļľ"
      ],
      [
        "ç»",
        "©"
      ],
      [
        "è®¡",
        "åĪĴ"
      ],
      [
        "ç¨³",
        "å®ļ"
      ],
      [
        "å¸®",
        "åĬ©"
      ],
      [
        "éĻ",
        "Ī"
      ],
      [
        "å¥",
        "ĭ"
      ],
      [
        "èĻ½",
        "çĦ¶"
      ],
      [
        "æ¯Ķ",
        "èµĽ"
      ],
      [
        "éĢ",
        "Ļ"
      ],
      [
        "çĻ",
        "»"
      ],
      [
        "è¯",
        "Ĭ"
      ],
      [
        "äºĭ",
        "ä¸ļ"
      ],
      [
        "åıĤ",
        "åĬł"
      ],
      [
        "äº",
        "Ī"
      ],
      [
        "è´",
        "µ"
      ],
      [
        "ç´",
        "¢"
      ],
      [
        "èĤ",
        "¤"
      ],
      [
        "å§Ķ",
        "åĳĺ"
      ],
      [
        "1",
        "8"
      ],
      [
        "æĻº",
        "èĥ½"
      ],
      [
        "æĽ´",
        "å¤ļ"
      ],
      [
        "è¿Ľ",
        "åħ¥"
      ],
      [
        "æķ",
        "£"
      ],
      [
        "æĪĲ",
        "åĬŁ"
      ],
      [
        "åıª",
        "æľī"
      ],
      [
        "å¡",
        "ĳ"
      ],
      [
        "å¸",
        "Ń"
      ],
      [
        "å®",
        "ģ"
      ],
      [
        "éĴ",
        "±"
      ],
      [
        "è·",
        "Ł"
      ],
      [
        "åħ",
        "¸"
      ],
      [
        "æķĻ",
        "å¸Ī"
      ],
      [
        "äºº",
        "ä»¬"
      ],
      [
        "ç»",
        "ĥ"
      ],
      [
        "ä¼",
        "¼"
      ],
      [
        "å°",
        "¼"
      ],
      [
        "æĭ¥",
        "æľī"
      ],
      [
        "åĨ",
        "²"
      ],
      [
        "åħ±",
        "åĲĮ"
      ],
      [
        "ç",
        "¶"
      ],
      [
        "éĶ",
        "®"
      ],
      [
        "æ°ĳ",
        "æĹı"
      ],
      [
        "èĦ",
        "ĳ"
      ],
      [
        "è½",
        "½"
      ],
      [
        "æ",
        "©"
      ],
      [
        "çĶŁ",
        "æĢģ"
      ],
      [
        "è¡Į",
        "ä¸º"
      ],
      [
        "éĢ",
        "Ģ"
      ],
      [
        "é",
        "Ń"
      ],
      [
        "éļı",
        "çĿĢ"
      ],
      [
        "éĢ",
        "ı"
      ],
      [
        "èĲ½",
        "å®ŀ"
      ],
      [
        "èı",
        "Į"
      ],
      [
        "ä¹ĭ",
        "éĹ´"
      ],
      [
        "èį",
        "£"
      ],
      [
        "æħ",
        "¢"
      ],
      [
        "è",
        "ĵ"
      ],
      [
        "å¥",
        "ĩ"
      ],
      [
        "èĦ",
        "±"
      ],
      [
        "åħħ",
        "åĪĨ"
      ],
      [
        "åıĬ",
        "æĹ¶"
      ],
      [
        "èĭ",
        "¦"
      ],
      [
        "è¯",
        "ī"
      ],
      [
        "çĪ",
        "¶"
      ],
      [
        "è¿ĩç¨ĭ",
        "ä¸Ń"
      ],
      [
        "åĪ",
        "ĺ"
      ],
      [
        "çĶļ",
        "èĩ³"
      ],
      [
        "çĶ¨",
        "æĪ·"
      ],
      [
        "æĻ",
        "ļ"
      ],
      [
        "æī",
        "©"
      ],
      [
        "åĮ»",
        "çĸĹ"
      ],
      [
        "è§Ħ",
        "åĪĴ"
      ],
      [
        "æ³",
        "Ľ"
      ],
      [
        "å®",
        "«"
      ],
      [
        "ä»ĭ",
        "ç»į"
      ],
      [
        "æĮī",
        "çħ§"
      ],
      [
        "å¥",
        "Ĺ"
      ],
      [
        "åģ",
        "ĩ"
      ],
      [
        "èĨ",
        "ľ"
      ],
      [
        "ä¸¥",
        "éĩį"
      ],
      [
        "çĶµ",
        "åŃĲ"
      ],
      [
        "éĩĳ",
        "èŀį"
      ],
      [
        "åŃ",
        "ķ"
      ],
      [
        "åŁ¹",
        "è®Ń"
      ],
      [
        "çļĦ",
        "åıĳå±ķ"
      ],
      [
        "æİ",
        "¢"
      ],
      [
        "äº¤",
        "éĢļ"
      ],
      [
        "åıĳå±ķ",
        "çļĦ"
      ],
      [
        "åĬł",
        "å·¥"
      ],
      [
        "å",
        "ĺ"
      ],
      [
        "æĿ",
        "¾"
      ],
      [
        "æľ",
        "Ŀ"
      ],
      [
        "æī",
        "ĺ"
      ],
      [
        "ä»",
        "ĺ"
      ],
      [
        "åı",
        "¶"
      ],
      [
        "è´",
        "¯"
      ],
      [
        "æ¯",
        "ķ"
      ],
      [
        "æ°",
        "¸"
      ],
      [
        "å»",
        "¶"
      ],
      [
        "æĢ§",
        "èĥ½"
      ],
      [
        "ç¬¬",
        "ä¸ī"
      ],
      [
        "éĶ",
        "Ļ"
      ],
      [
        "åĢ",
        "ĭ"
      ],
      [
        "ä¼",
        "Ł"
      ],
      [
        "æł¸",
        "å¿ĥ"
      ],
      [
        "å½",
        "»"
      ],
      [
        "åº",
        "Ĩ"
      ],
      [
        "è",
        "³"
      ],
      [
        "æĢ§",
        "çļĦ"
      ],
      [
        "ç»§",
        "ç»Ń"
      ],
      [
        "æĬ",
        "ĵ"
      ],
      [
        "æīį",
        "èĥ½"
      ],
      [
        "å¨",
        "ģ"
      ],
      [
        "åıĳ",
        "æĮ¥"
      ],
      [
        "å¥",
        "¥"
      ],
      [
        "ä»»",
        "ä½ķ"
      ],
      [
        "ç",
        "Ĵ"
      ],
      [
        "ä»Ĭ",
        "å¹´"
      ],
      [
        "åħ³",
        "äºİ"
      ],
      [
        "1",
        "6"
      ],
      [
        "èĥ",
        "¶"
      ],
      [
        "ç¥",
        "¨"
      ],
      [
        "èĥ",
        "Į"
      ],
      [
        "æĹħ",
        "æ¸¸"
      ],
      [
        "æ³ķ",
        "å¾ĭ"
      ],
      [
        "äº",
        "«"
      ],
      [
        "éĽ",
        "¨"
      ],
      [
        "ä¸¤",
        "ä¸ª"
      ],
      [
        "æĬ¥",
        "åĳĬ"
      ],
      [
        "åĩı",
        "å°ĳ"
      ],
      [
        "è¶ħ",
        "è¿ĩ"
      ],
      [
        "ä¹",
        "İ"
      ],
      [
        "ä¸Ģ",
        "çĽ´"
      ],
      [
        "çĽ",
        "ĸ"
      ],
      [
        "çģ",
        "µ"
      ],
      [
        "å®Į",
        "åĸĦ"
      ],
      [
        "å¾Ĺ",
        "åĪ°"
      ],
      [
        "é²",
        "ľ"
      ],
      [
        "ç½",
        "ª"
      ],
      [
        "åİ",
        "ļ"
      ],
      [
        "ç¦",
        "ģ"
      ],
      [
        "æ",
        "¾"
      ],
      [
        "ä¸°",
        "å¯Į"
      ],
      [
        "èĥ½",
        "æºĲ"
      ],
      [
        "è°",
        "Ī"
      ],
      [
        "å®ŀ",
        "è·µ"
      ],
      [
        "ä»ĸ",
        "çļĦ"
      ],
      [
        "æķ",
        "ĳ"
      ],
      [
        "æĸ¹",
        "æ¡Ī"
      ],
      [
        "ç¤¾ä¼ļ",
        "ä¸»ä¹ī"
      ],
      [
        "æľ",
        "ĭ"
      ],
      [
        "éģ¿",
        "åħį"
      ],
      [
        "çĨ",
        "Ł"
      ],
      [
        "è¿",
        "İ"
      ],
      [
        "è¯",
        "ļ"
      ],
      [
        "æ²",
        "Ļ"
      ],
      [
        "å©",
        "ļ"
      ],
      [
        "èĮĥ",
        "åĽ´"
      ],
      [
        "åĪ",
        "¤"
      ],
      [
        "å¼ķ",
        "èµ·"
      ],
      [
        "æĿ",
        "Ĥ"
      ],
      [
        "ç",
        "ĺ"
      ],
      [
        "æĢ",
        "Ģ"
      ],
      [
        "ä½",
        "³"
      ],
      [
        "ä¸ĵ",
        "å®¶"
      ],
      [
        "èĹ",
        "ı"
      ],
      [
        "åĪĨ",
        "éĴŁ"
      ],
      [
        "æĮĩ",
        "å¯¼"
      ],
      [
        "ç»ı",
        "è¿ĩ"
      ],
      [
        "èĭ",
        "¥"
      ],
      [
        "æŃ",
        "Į"
      ],
      [
        "1",
        "4"
      ],
      [
        "éĩį",
        "å¤§"
      ],
      [
        "æľª",
        "æĿ¥"
      ],
      [
        "åª",
        "Ĵ"
      ],
      [
        "ç³»",
        "åĪĹ"
      ],
      [
        "èĻ",
        "ĳ"
      ],
      [
        "éĻ",
        "Ħ"
      ],
      [
        "çĲĨ",
        "è®º"
      ],
      [
        "å®",
        "Ĺ"
      ],
      [
        "æĪĲ",
        "æľ¬"
      ],
      [
        "çļĦ",
        "å¤§"
      ],
      [
        "äº",
        "®"
      ],
      [
        "æĸ½",
        "å·¥"
      ],
      [
        "æ¨¡",
        "å¼ı"
      ],
      [
        "åħ³",
        "éĶ®"
      ],
      [
        "è§Ħ",
        "æ¨¡"
[...]
